{
  "version": "1.0",
  "truncation": null,
  "padding": null,
  "added_tokens": [
    {
      "id": 0,
      "content": "[UNK]",
      "single_word": false,
      "lstrip": false,
      "rstrip": false,
      "normalized": false,
      "special": true
    },
    {
      "id": 1,
      "content": "[CLS]",
      "single_word": false,
      "lstrip": false,
      "rstrip": false,
      "normalized": false,
      "special": true
    },
    {
      "id": 2,
      "content": "[SEP]",
      "single_word": false,
      "lstrip": false,
      "rstrip": false,
      "normalized": false,
      "special": true
    },
    {
      "id": 3,
      "content": "[PAD]",
      "single_word": false,
      "lstrip": false,
      "rstrip": false,
      "normalized": false,
      "special": true
    },
    {
      "id": 4,
      "content": "[MASK]",
      "single_word": false,
      "lstrip": false,
      "rstrip": false,
      "normalized": false,
      "special": true
    },
    {
      "id": 16384,
      "content": "<|endoftext|>",
      "single_word": false,
      "lstrip": false,
      "rstrip": false,
      "normalized": false,
      "special": true
    }
  ],
  "normalizer": {
    "type": "NFKC"
  },
  "pre_tokenizer": {
    "type": "Whitespace"
  },
  "post_processor": null,
  "decoder": null,
  "model": {
    "type": "BPE",
    "dropout": null,
    "unk_token": "[UNK]",
    "continuing_subword_prefix": null,
    "end_of_word_suffix": null,
    "fuse_unk": false,
    "byte_fallback": false,
    "ignore_merges": false,
    "vocab": {
      "[UNK]": 0,
      "[CLS]": 1,
      "[SEP]": 2,
      "[PAD]": 3,
      "[MASK]": 4,
      "!": 5,
      "\"": 6,
      "#": 7,
      "$": 8,
      "%": 9,
      "'": 10,
      "(": 11,
      ")": 12,
      "+": 13,
      ",": 14,
      "-": 15,
      ".": 16,
      "/": 17,
      "0": 18,
      "1": 19,
      "2": 20,
      "3": 21,
      "4": 22,
      "5": 23,
      "6": 24,
      "7": 25,
      "8": 26,
      "9": 27,
      ":": 28,
      ";": 29,
      "?": 30,
      "A": 31,
      "B": 32,
      "C": 33,
      "D": 34,
      "E": 35,
      "F": 36,
      "G": 37,
      "H": 38,
      "I": 39,
      "J": 40,
      "K": 41,
      "L": 42,
      "M": 43,
      "N": 44,
      "O": 45,
      "P": 46,
      "Q": 47,
      "R": 48,
      "S": 49,
      "T": 50,
      "U": 51,
      "V": 52,
      "W": 53,
      "X": 54,
      "Y": 55,
      "Z": 56,
      "a": 57,
      "b": 58,
      "c": 59,
      "d": 60,
      "e": 61,
      "f": 62,
      "g": 63,
      "h": 64,
      "i": 65,
      "k": 66,
      "l": 67,
      "m": 68,
      "n": 69,
      "o": 70,
      "p": 71,
      "r": 72,
      "s": 73,
      "t": 74,
      "u": 75,
      "v": 76,
      "w": 77,
      "x": 78,
      "y": 79,
      "z": 80,
      "~": 81,
      "°": 82,
      "±": 83,
      "·": 84,
      "Ø": 85,
      "á": 86,
      "é": 87,
      "í": 88,
      "ó": 89,
      "ب": 90,
      "ج": 91,
      "ط": 92,
      "ك": 93,
      "ل": 94,
      "و": 95,
      "ي": 96,
      "—": 97,
      "“": 98,
      "”": 99,
      "○": 100,
      "、": 101,
      "。": 102,
      "〇": 103,
      "《": 104,
      "》": 105,
      "「": 106,
      "」": 107,
      "『": 108,
      "』": 109,
      "が": 110,
      "一": 111,
      "丁": 112,
      "七": 113,
      "万": 114,
      "丈": 115,
      "三": 116,
      "上": 117,
      "下": 118,
      "不": 119,
      "且": 120,
      "世": 121,
      "丘": 122,
      "丙": 123,
      "东": 124,
      "丝": 125,
      "丟": 126,
      "並": 127,
      "个": 128,
      "中": 129,
      "串": 130,
      "丸": 131,
      "丹": 132,
      "为": 133,
      "主": 134,
      "乃": 135,
      "久": 136,
      "之": 137,
      "乍": 138,
      "乎": 139,
      "乏": 140,
      "乘": 141,
      "乙": 142,
      "九": 143,
      "也": 144,
      "习": 145,
      "乳": 146,
      "乾": 147,
      "亂": 148,
      "了": 149,
      "予": 150,
      "事": 151,
      "二": 152,
      "互": 153,
      "五": 154,
      "井": 155,
      "些": 156,
      "亞": 157,
      "亡": 158,
      "交": 159,
      "亥": 160,
      "亨": 161,
      "享": 162,
      "京": 163,
      "亮": 164,
      "人": 165,
      "什": 166,
      "仁": 167,
      "仄": 168,
      "今": 169,
      "介": 170,
      "仍": 171,
      "仔": 172,
      "他": 173,
      "仗": 174,
      "付": 175,
      "仙": 176,
      "代": 177,
      "令": 178,
      "以": 179,
      "们": 180,
      "仰": 181,
      "件": 182,
      "价": 183,
      "任": 184,
      "份": 185,
      "仿": 186,
      "企": 187,
      "伊": 188,
      "伍": 189,
      "伏": 190,
      "伐": 191,
      "休": 192,
      "优": 193,
      "会": 194,
      "传": 195,
      "伯": 196,
      "估": 197,
      "伴": 198,
      "伶": 199,
      "伸": 200,
      "似": 201,
      "伽": 202,
      "但": 203,
      "佈": 204,
      "位": 205,
      "低": 206,
      "住": 207,
      "佐": 208,
      "佑": 209,
      "体": 210,
      "佔": 211,
      "何": 212,
      "佛": 213,
      "作": 214,
      "你": 215,
      "佩": 216,
      "佳": 217,
      "併": 218,
      "使": 219,
      "來": 220,
      "侈": 221,
      "例": 222,
      "侏": 223,
      "供": 224,
      "依": 225,
      "侯": 226,
      "侵": 227,
      "侶": 228,
      "侷": 229,
      "便": 230,
      "係": 231,
      "促": 232,
      "俄": 233,
      "俐": 234,
      "俗": 235,
      "保": 236,
      "信": 237,
      "修": 238,
      "俯": 239,
      "俱": 240,
      "倉": 241,
      "個": 242,
      "倍": 243,
      "們": 244,
      "倒": 245,
      "候": 246,
      "借": 247,
      "倡": 248,
      "倦": 249,
      "倫": 250,
      "值": 251,
      "假": 252,
      "偉": 253,
      "偏": 254,
      "做": 255,
      "停": 256,
      "健": 257,
      "側": 258,
      "偵": 259,
      "偶": 260,
      "偽": 261,
      "傅": 262,
      "傍": 263,
      "傑": 264,
      "傘": 265,
      "備": 266,
      "傢": 267,
      "催": 268,
      "傲": 269,
      "傳": 270,
      "債": 271,
      "傷": 272,
      "傾": 273,
      "僅": 274,
      "像": 275,
      "僕": 276,
      "僵": 277,
      "價": 278,
      "儀": 279,
      "億": 280,
      "儒": 281,
      "儘": 282,
      "償": 283,
      "優": 284,
      "儲": 285,
      "儼": 286,
      "允": 287,
      "元": 288,
      "兄": 289,
      "充": 290,
      "兆": 291,
      "兇": 292,
      "先": 293,
      "光": 294,
      "克": 295,
      "兌": 296,
      "免": 297,
      "兒": 298,
      "兔": 299,
      "入": 300,
      "內": 301,
      "全": 302,
      "兩": 303,
      "八": 304,
      "公": 305,
      "六": 306,
      "共": 307,
      "关": 308,
      "兴": 309,
      "兵": 310,
      "其": 311,
      "具": 312,
      "典": 313,
      "兼": 314,
      "冉": 315,
      "冊": 316,
      "再": 317,
      "冒": 318,
      "冗": 319,
      "军": 320,
      "冠": 321,
      "冥": 322,
      "冬": 323,
      "冰": 324,
      "冶": 325,
      "冷": 326,
      "准": 327,
      "凋": 328,
      "凍": 329,
      "凜": 330,
      "凝": 331,
      "几": 332,
      "凡": 333,
      "凱": 334,
      "凳": 335,
      "凶": 336,
      "凸": 337,
      "凹": 338,
      "出": 339,
      "刀": 340,
      "刃": 341,
      "分": 342,
      "切": 343,
      "划": 344,
      "列": 345,
      "初": 346,
      "判": 347,
      "別": 348,
      "刨": 349,
      "利": 350,
      "刮": 351,
      "到": 352,
      "制": 353,
      "刷": 354,
      "刺": 355,
      "刻": 356,
      "則": 357,
      "削": 358,
      "前": 359,
      "剎": 360,
      "剔": 361,
      "剛": 362,
      "剝": 363,
      "剩": 364,
      "剪": 365,
      "副": 366,
      "割": 367,
      "創": 368,
      "劃": 369,
      "劇": 370,
      "劍": 371,
      "劑": 372,
      "力": 373,
      "功": 374,
      "加": 375,
      "劣": 376,
      "动": 377,
      "助": 378,
      "努": 379,
      "勁": 380,
      "勃": 381,
      "勇": 382,
      "勉": 383,
      "勒": 384,
      "動": 385,
      "務": 386,
      "勝": 387,
      "勞": 388,
      "勢": 389,
      "勤": 390,
      "勵": 391,
      "勻": 392,
      "勾": 393,
      "包": 394,
      "匈": 395,
      "匕": 396,
      "化": 397,
      "北": 398,
      "匙": 399,
      "匠": 400,
      "匣": 401,
      "匯": 402,
      "匱": 403,
      "匹": 404,
      "區": 405,
      "十": 406,
      "千": 407,
      "升": 408,
      "午": 409,
      "半": 410,
      "华": 411,
      "卑": 412,
      "卓": 413,
      "協": 414,
      "南": 415,
      "博": 416,
      "占": 417,
      "卡": 418,
      "印": 419,
      "危": 420,
      "即": 421,
      "卵": 422,
      "卷": 423,
      "卸": 424,
      "卻": 425,
      "厄": 426,
      "历": 427,
      "厘": 428,
      "厚": 429,
      "原": 430,
      "厭": 431,
      "去": 432,
      "參": 433,
      "又": 434,
      "及": 435,
      "友": 436,
      "反": 437,
      "发": 438,
      "取": 439,
      "受": 440,
      "变": 441,
      "叛": 442,
      "叢": 443,
      "口": 444,
      "古": 445,
      "句": 446,
      "另": 447,
      "只": 448,
      "叫": 449,
      "召": 450,
      "叮": 451,
      "可": 452,
      "台": 453,
      "史": 454,
      "右": 455,
      "司": 456,
      "吃": 457,
      "各": 458,
      "合": 459,
      "吉": 460,
      "吊": 461,
      "吋": 462,
      "同": 463,
      "名": 464,
      "后": 465,
      "吏": 466,
      "向": 467,
      "吞": 468,
      "吟": 469,
      "否": 470,
      "吧": 471,
      "含": 472,
      "吳": 473,
      "吵": 474,
      "吸": 475,
      "吹": 476,
      "吻": 477,
      "吼": 478,
      "呀": 479,
      "呈": 480,
      "告": 481,
      "呢": 482,
      "周": 483,
      "味": 484,
      "呵": 485,
      "呻": 486,
      "呼": 487,
      "命": 488,
      "咀": 489,
      "咆": 490,
      "和": 491,
      "咔": 492,
      "咕": 493,
      "咖": 494,
      "咪": 495,
      "咬": 496,
      "品": 497,
      "哄": 498,
      "哈": 499,
      "哉": 500,
      "响": 501,
      "員": 502,
      "哥": 503,
      "哦": 504,
      "哩": 505,
      "哪": 506,
      "哮": 507,
      "哲": 508,
      "哺": 509,
      "唇": 510,
      "唐": 511,
      "唑": 512,
      "售": 513,
      "唯": 514,
      "唱": 515,
      "唾": 516,
      "啃": 517,
      "啄": 518,
      "商": 519,
      "啊": 520,
      "問": 521,
      "啟": 522,
      "啤": 523,
      "喀": 524,
      "善": 525,
      "喉": 526,
      "喔": 527,
      "喘": 528,
      "喙": 529,
      "喚": 530,
      "喜": 531,
      "喝": 532,
      "喬": 533,
      "單": 534,
      "喵": 535,
      "喷": 536,
      "喻": 537,
      "嗅": 538,
      "嗎": 539,
      "嗜": 540,
      "嗣": 541,
      "嘆": 542,
      "嘉": 543,
      "嘗": 544,
      "嘯": 545,
      "嘴": 546,
      "嘶": 547,
      "噠": 548,
      "器": 549,
      "噪": 550,
      "噴": 551,
      "噸": 552,
      "嚇": 553,
      "嚐": 554,
      "嚕": 555,
      "嚮": 556,
      "嚴": 557,
      "嚼": 558,
      "囊": 559,
      "四": 560,
      "回": 561,
      "因": 562,
      "困": 563,
      "固": 564,
      "国": 565,
      "圈": 566,
      "國": 567,
      "圍": 568,
      "園": 569,
      "圓": 570,
      "圖": 571,
      "團": 572,
      "土": 573,
      "在": 574,
      "地": 575,
      "圾": 576,
      "址": 577,
      "均": 578,
      "坊": 579,
      "坍": 580,
      "坐": 581,
      "坑": 582,
      "坡": 583,
      "坦": 584,
      "坪": 585,
      "垂": 586,
      "垃": 587,
      "型": 588,
      "垢": 589,
      "埃": 590,
      "埋": 591,
      "城": 592,
      "域": 593,
      "執": 594,
      "培": 595,
      "基": 596,
      "堂": 597,
      "堅": 598,
      "堆": 599,
      "堊": 600,
      "堰": 601,
      "報": 602,
      "場": 603,
      "堵": 604,
      "塊": 605,
      "塌": 606,
      "塑": 607,
      "塔": 608,
      "塗": 609,
      "塞": 610,
      "塢": 611,
      "填": 612,
      "塵": 613,
      "境": 614,
      "墊": 615,
      "墓": 616,
      "增": 617,
      "墟": 618,
      "墨": 619,
      "墾": 620,
      "壁": 621,
      "壅": 622,
      "壓": 623,
      "壞": 624,
      "壩": 625,
      "士": 626,
      "壯": 627,
      "壺": 628,
      "壽": 629,
      "复": 630,
      "夏": 631,
      "夕": 632,
      "外": 633,
      "多": 634,
      "夜": 635,
      "夠": 636,
      "夢": 637,
      "夥": 638,
      "大": 639,
      "天": 640,
      "太": 641,
      "夫": 642,
      "央": 643,
      "失": 644,
      "夾": 645,
      "奇": 646,
      "奈": 647,
      "奉": 648,
      "奏": 649,
      "契": 650,
      "奔": 651,
      "套": 652,
      "奠": 653,
      "奢": 654,
      "奧": 655,
      "奪": 656,
      "奮": 657,
      "女": 658,
      "奶": 659,
      "她": 660,
      "好": 661,
      "如": 662,
      "妃": 663,
      "妙": 664,
      "妝": 665,
      "妥": 666,
      "妨": 667,
      "妹": 668,
      "姆": 669,
      "始": 670,
      "姓": 671,
      "委": 672,
      "姻": 673,
      "姿": 674,
      "威": 675,
      "娃": 676,
      "娘": 677,
      "娛": 678,
      "娜": 679,
      "娥": 680,
      "婁": 681,
      "婆": 682,
      "婚": 683,
      "婦": 684,
      "媒": 685,
      "媲": 686,
      "嫌": 687,
      "嫘": 688,
      "嫦": 689,
      "嫩": 690,
      "嬉": 691,
      "嬌": 692,
      "嬰": 693,
      "子": 694,
      "孔": 695,
      "孕": 696,
      "字": 697,
      "存": 698,
      "孝": 699,
      "孟": 700,
      "季": 701,
      "孤": 702,
      "学": 703,
      "孩": 704,
      "孫": 705,
      "孵": 706,
      "學": 707,
      "它": 708,
      "宅": 709,
      "宇": 710,
      "守": 711,
      "安": 712,
      "宋": 713,
      "完": 714,
      "宏": 715,
      "宕": 716,
      "宗": 717,
      "官": 718,
      "宙": 719,
      "定": 720,
      "宛": 721,
      "宜": 722,
      "审": 723,
      "客": 724,
      "宣": 725,
      "室": 726,
      "宮": 727,
      "宰": 728,
      "害": 729,
      "宴": 730,
      "宵": 731,
      "家": 732,
      "容": 733,
      "宽": 734,
      "宾": 735,
      "宿": 736,
      "寂": 737,
      "寄": 738,
      "密": 739,
      "富": 740,
      "寒": 741,
      "寓": 742,
      "察": 743,
      "寢": 744,
      "實": 745,
      "寧": 746,
      "審": 747,
      "寫": 748,
      "寬": 749,
      "寵": 750,
      "寶": 751,
      "寸": 752,
      "对": 753,
      "寺": 754,
      "封": 755,
      "射": 756,
      "將": 757,
      "專": 758,
      "尊": 759,
      "尋": 760,
      "對": 761,
      "導": 762,
      "小": 763,
      "少": 764,
      "尖": 765,
      "尚": 766,
      "尝": 767,
      "尤": 768,
      "尬": 769,
      "就": 770,
      "尷": 771,
      "尺": 772,
      "尼": 773,
      "尾": 774,
      "尿": 775,
      "局": 776,
      "居": 777,
      "屈": 778,
      "屋": 779,
      "屍": 780,
      "屏": 781,
      "屑": 782,
      "展": 783,
      "屜": 784,
      "層": 785,
      "履": 786,
      "屬": 787,
      "山": 788,
      "屹": 789,
      "岩": 790,
      "岳": 791,
      "岸": 792,
      "峨": 793,
      "峭": 794,
      "峰": 795,
      "島": 796,
      "峻": 797,
      "峽": 798,
      "崇": 799,
      "崎": 800,
      "崖": 801,
      "崛": 802,
      "崠": 803,
      "崩": 804,
      "崽": 805,
      "嵌": 806,
      "嵐": 807,
      "嶼": 808,
      "巅": 809,
      "巍": 810,
      "巒": 811,
      "巔": 812,
      "川": 813,
      "州": 814,
      "巡": 815,
      "巢": 816,
      "工": 817,
      "左": 818,
      "巧": 819,
      "巨": 820,
      "差": 821,
      "己": 822,
      "已": 823,
      "巴": 824,
      "巷": 825,
      "巾": 826,
      "币": 827,
      "市": 828,
      "布": 829,
      "帆": 830,
      "师": 831,
      "希": 832,
      "帕": 833,
      "帛": 834,
      "帝": 835,
      "師": 836,
      "席": 837,
      "帳": 838,
      "帶": 839,
      "常": 840,
      "帽": 841,
      "幅": 842,
      "幕": 843,
      "幣": 844,
      "幫": 845,
      "干": 846,
      "平": 847,
      "年": 848,
      "幸": 849,
      "幹": 850,
      "幻": 851,
      "幼": 852,
      "幽": 853,
      "幾": 854,
      "庇": 855,
      "床": 856,
      "序": 857,
      "底": 858,
      "店": 859,
      "府": 860,
      "度": 861,
      "座": 862,
      "庫": 863,
      "庭": 864,
      "庶": 865,
      "康": 866,
      "庸": 867,
      "廂": 868,
      "廉": 869,
      "廊": 870,
      "廓": 871,
      "廚": 872,
      "廟": 873,
      "廠": 874,
      "廢": 875,
      "廣": 876,
      "廳": 877,
      "延": 878,
      "廷": 879,
      "建": 880,
      "开": 881,
      "弄": 882,
      "式": 883,
      "引": 884,
      "弗": 885,
      "弟": 886,
      "弧": 887,
      "弱": 888,
      "張": 889,
      "強": 890,
      "强": 891,
      "彈": 892,
      "彌": 893,
      "彎": 894,
      "当": 895,
      "彙": 896,
      "形": 897,
      "彩": 898,
      "彰": 899,
      "影": 900,
      "彷": 901,
      "役": 902,
      "彼": 903,
      "彿": 904,
      "往": 905,
      "征": 906,
      "待": 907,
      "很": 908,
      "律": 909,
      "後": 910,
      "徑": 911,
      "徒": 912,
      "得": 913,
      "徙": 914,
      "從": 915,
      "御": 916,
      "復": 917,
      "循": 918,
      "微": 919,
      "徵": 920,
      "德": 921,
      "徹": 922,
      "心": 923,
      "必": 924,
      "忌": 925,
      "忍": 926,
      "志": 927,
      "忘": 928,
      "忙": 929,
      "忠": 930,
      "快": 931,
      "念": 932,
      "忽": 933,
      "怎": 934,
      "怕": 935,
      "思": 936,
      "怡": 937,
      "急": 938,
      "性": 939,
      "怪": 940,
      "怯": 941,
      "恆": 942,
      "恐": 943,
      "恢": 944,
      "恤": 945,
      "恩": 946,
      "息": 947,
      "恰": 948,
      "悄": 949,
      "悅": 950,
      "悉": 951,
      "悍": 952,
      "悔": 953,
      "悟": 954,
      "悠": 955,
      "患": 956,
      "您": 957,
      "悲": 958,
      "悶": 959,
      "悼": 960,
      "情": 961,
      "惋": 962,
      "惕": 963,
      "惘": 964,
      "惜": 965,
      "惠": 966,
      "惡": 967,
      "惯": 968,
      "惰": 969,
      "惱": 970,
      "想": 971,
      "愉": 972,
      "意": 973,
      "愛": 974,
      "愜": 975,
      "感": 976,
      "態": 977,
      "慌": 978,
      "慎": 979,
      "慕": 980,
      "慢": 981,
      "慣": 982,
      "慧": 983,
      "慮": 984,
      "慰": 985,
      "慶": 986,
      "慾": 987,
      "憂": 988,
      "憊": 989,
      "憑": 990,
      "憨": 991,
      "憩": 992,
      "憶": 993,
      "懂": 994,
      "應": 995,
      "懶": 996,
      "懷": 997,
      "懸": 998,
      "懾": 999,
      "成": 1000,
      "我": 1001,
      "戒": 1002,
      "或": 1003,
      "战": 1004,
      "截": 1005,
      "戰": 1006,
      "戲": 1007,
      "戳": 1008,
      "戴": 1009,
      "戶": 1010,
      "房": 1011,
      "所": 1012,
      "扁": 1013,
      "扇": 1014,
      "手": 1015,
      "才": 1016,
      "扎": 1017,
      "打": 1018,
      "托": 1019,
      "扣": 1020,
      "扮": 1021,
      "扯": 1022,
      "扶": 1023,
      "批": 1024,
      "找": 1025,
      "承": 1026,
      "技": 1027,
      "抄": 1028,
      "把": 1029,
      "抑": 1030,
      "抒": 1031,
      "抓": 1032,
      "投": 1033,
      "抗": 1034,
      "折": 1035,
      "披": 1036,
      "抬": 1037,
      "抱": 1038,
      "抵": 1039,
      "抹": 1040,
      "押": 1041,
      "抽": 1042,
      "拂": 1043,
      "拆": 1044,
      "拉": 1045,
      "拋": 1046,
      "拌": 1047,
      "拍": 1048,
      "拒": 1049,
      "拓": 1050,
      "拔": 1051,
      "拖": 1052,
      "拘": 1053,
      "拙": 1054,
      "招": 1055,
      "拜": 1056,
      "择": 1057,
      "括": 1058,
      "拭": 1059,
      "拯": 1060,
      "拱": 1061,
      "拳": 1062,
      "拼": 1063,
      "拿": 1064,
      "持": 1065,
      "指": 1066,
      "按": 1067,
      "挑": 1068,
      "挖": 1069,
      "挪": 1070,
      "振": 1071,
      "挺": 1072,
      "挾": 1073,
      "捆": 1074,
      "捉": 1075,
      "捏": 1076,
      "捐": 1077,
      "捕": 1078,
      "捧": 1079,
      "捨": 1080,
      "捩": 1081,
      "捲": 1082,
      "捷": 1083,
      "掃": 1084,
      "授": 1085,
      "掉": 1086,
      "掌": 1087,
      "掏": 1088,
      "排": 1089,
      "掘": 1090,
      "掛": 1091,
      "掠": 1092,
      "採": 1093,
      "探": 1094,
      "接": 1095,
      "控": 1096,
      "推": 1097,
      "掩": 1098,
      "措": 1099,
      "掬": 1100,
      "揉": 1101,
      "描": 1102,
      "提": 1103,
      "插": 1104,
      "揚": 1105,
      "換": 1106,
      "握": 1107,
      "揭": 1108,
      "揮": 1109,
      "援": 1110,
      "搆": 1111,
      "損": 1112,
      "搏": 1113,
      "搔": 1114,
      "搖": 1115,
      "搗": 1116,
      "搜": 1117,
      "搞": 1118,
      "搪": 1119,
      "搬": 1120,
      "搭": 1121,
      "搶": 1122,
      "摔": 1123,
      "摘": 1124,
      "摩": 1125,
      "摸": 1126,
      "摺": 1127,
      "摻": 1128,
      "撇": 1129,
      "撈": 1130,
      "撐": 1131,
      "撒": 1132,
      "撕": 1133,
      "撞": 1134,
      "撥": 1135,
      "撩": 1136,
      "撫": 1137,
      "播": 1138,
      "撼": 1139,
      "撿": 1140,
      "擁": 1141,
      "擄": 1142,
      "擅": 1143,
      "擇": 1144,
      "擊": 1145,
      "擋": 1146,
      "操": 1147,
      "擎": 1148,
      "擔": 1149,
      "據": 1150,
      "擠": 1151,
      "擦": 1152,
      "擬": 1153,
      "擴": 1154,
      "擺": 1155,
      "擾": 1156,
      "攀": 1157,
      "攜": 1158,
      "攝": 1159,
      "攤": 1160,
      "攪": 1161,
      "支": 1162,
      "收": 1163,
      "改": 1164,
      "攻": 1165,
      "放": 1166,
      "政": 1167,
      "故": 1168,
      "效": 1169,
      "敏": 1170,
      "救": 1171,
      "敗": 1172,
      "敘": 1173,
      "教": 1174,
      "敞": 1175,
      "敢": 1176,
      "散": 1177,
      "敦": 1178,
      "敬": 1179,
      "数": 1180,
      "敲": 1181,
      "整": 1182,
      "敵": 1183,
      "敷": 1184,
      "數": 1185,
      "斂": 1186,
      "文": 1187,
      "斐": 1188,
      "斑": 1189,
      "料": 1190,
      "斜": 1191,
      "斤": 1192,
      "斥": 1193,
      "斧": 1194,
      "断": 1195,
      "斯": 1196,
      "新": 1197,
      "斷": 1198,
      "方": 1199,
      "於": 1200,
      "施": 1201,
      "旁": 1202,
      "旅": 1203,
      "旋": 1204,
      "族": 1205,
      "旗": 1206,
      "既": 1207,
      "日": 1208,
      "旦": 1209,
      "旨": 1210,
      "早": 1211,
      "旭": 1212,
      "旱": 1213,
      "时": 1214,
      "旺": 1215,
      "昂": 1216,
      "昆": 1217,
      "昇": 1218,
      "昌": 1219,
      "明": 1220,
      "昏": 1221,
      "易": 1222,
      "星": 1223,
      "映": 1224,
      "春": 1225,
      "昭": 1226,
      "是": 1227,
      "显": 1228,
      "時": 1229,
      "晃": 1230,
      "晉": 1231,
      "晚": 1232,
      "晦": 1233,
      "晨": 1234,
      "普": 1235,
      "景": 1236,
      "晰": 1237,
      "晴": 1238,
      "晶": 1239,
      "智": 1240,
      "晾": 1241,
      "暇": 1242,
      "暈": 1243,
      "暑": 1244,
      "暖": 1245,
      "暗": 1246,
      "暢": 1247,
      "暨": 1248,
      "暫": 1249,
      "暴": 1250,
      "曆": 1251,
      "曝": 1252,
      "曠": 1253,
      "曬": 1254,
      "曲": 1255,
      "更": 1256,
      "書": 1257,
      "曼": 1258,
      "曾": 1259,
      "替": 1260,
      "最": 1261,
      "會": 1262,
      "月": 1263,
      "有": 1264,
      "朋": 1265,
      "服": 1266,
      "朗": 1267,
      "望": 1268,
      "朝": 1269,
      "期": 1270,
      "朦": 1271,
      "朧": 1272,
      "木": 1273,
      "未": 1274,
      "末": 1275,
      "本": 1276,
      "札": 1277,
      "朱": 1278,
      "朵": 1279,
      "朽": 1280,
      "杉": 1281,
      "李": 1282,
      "材": 1283,
      "村": 1284,
      "杜": 1285,
      "束": 1286,
      "杯": 1287,
      "東": 1288,
      "松": 1289,
      "板": 1290,
      "枋": 1291,
      "析": 1292,
      "枕": 1293,
      "林": 1294,
      "枚": 1295,
      "果": 1296,
      "枝": 1297,
      "枯": 1298,
      "架": 1299,
      "柄": 1300,
      "柊": 1301,
      "柏": 1302,
      "某": 1303,
      "柑": 1304,
      "染": 1305,
      "柔": 1306,
      "查": 1307,
      "柱": 1308,
      "柴": 1309,
      "柵": 1310,
      "栓": 1311,
      "栗": 1312,
      "校": 1313,
      "株": 1314,
      "样": 1315,
      "核": 1316,
      "根": 1317,
      "格": 1318,
      "栽": 1319,
      "桂": 1320,
      "桃": 1321,
      "框": 1322,
      "案": 1323,
      "桉": 1324,
      "桌": 1325,
      "桑": 1326,
      "档": 1327,
      "桶": 1328,
      "桿": 1329,
      "梅": 1330,
      "條": 1331,
      "梠": 1332,
      "梨": 1333,
      "梭": 1334,
      "梯": 1335,
      "械": 1336,
      "梳": 1337,
      "棄": 1338,
      "棉": 1339,
      "棋": 1340,
      "棍": 1341,
      "棒": 1342,
      "棕": 1343,
      "棗": 1344,
      "棟": 1345,
      "棣": 1346,
      "棧": 1347,
      "森": 1348,
      "棱": 1349,
      "棲": 1350,
      "棵": 1351,
      "椅": 1352,
      "植": 1353,
      "椎": 1354,
      "椒": 1355,
      "椰": 1356,
      "楓": 1357,
      "楚": 1358,
      "楞": 1359,
      "業": 1360,
      "極": 1361,
      "楷": 1362,
      "概": 1363,
      "榜": 1364,
      "榮": 1365,
      "構": 1366,
      "槍": 1367,
      "槓": 1368,
      "槳": 1369,
      "槽": 1370,
      "樂": 1371,
      "樑": 1372,
      "樓": 1373,
      "標": 1374,
      "樞": 1375,
      "模": 1376,
      "樣": 1377,
      "樸": 1378,
      "樹": 1379,
      "橄": 1380,
      "橇": 1381,
      "橋": 1382,
      "橘": 1383,
      "橙": 1384,
      "機": 1385,
      "橡": 1386,
      "橢": 1387,
      "橫": 1388,
      "檀": 1389,
      "檔": 1390,
      "檜": 1391,
      "檢": 1392,
      "檬": 1393,
      "檯": 1394,
      "檸": 1395,
      "檻": 1396,
      "櫃": 1397,
      "櫚": 1398,
      "櫥": 1399,
      "櫻": 1400,
      "欄": 1401,
      "權": 1402,
      "欒": 1403,
      "欖": 1404,
      "欠": 1405,
      "次": 1406,
      "欣": 1407,
      "欲": 1408,
      "款": 1409,
      "歇": 1410,
      "歉": 1411,
      "歌": 1412,
      "歐": 1413,
      "歡": 1414,
      "止": 1415,
      "正": 1416,
      "此": 1417,
      "步": 1418,
      "武": 1419,
      "歲": 1420,
      "歷": 1421,
      "歸": 1422,
      "死": 1423,
      "殉": 1424,
      "殊": 1425,
      "殖": 1426,
      "殘": 1427,
      "段": 1428,
      "殷": 1429,
      "殺": 1430,
      "殼": 1431,
      "殿": 1432,
      "毀": 1433,
      "毅": 1434,
      "母": 1435,
      "每": 1436,
      "毒": 1437,
      "比": 1438,
      "毛": 1439,
      "毫": 1440,
      "毯": 1441,
      "氏": 1442,
      "民": 1443,
      "气": 1444,
      "氖": 1445,
      "氛": 1446,
      "氟": 1447,
      "氣": 1448,
      "氤": 1449,
      "氧": 1450,
      "氨": 1451,
      "氫": 1452,
      "氯": 1453,
      "氳": 1454,
      "水": 1455,
      "永": 1456,
      "汁": 1457,
      "求": 1458,
      "汗": 1459,
      "汙": 1460,
      "江": 1461,
      "池": 1462,
      "污": 1463,
      "汰": 1464,
      "汲": 1465,
      "決": 1466,
      "汽": 1467,
      "沁": 1468,
      "沃": 1469,
      "沈": 1470,
      "沉": 1471,
      "沌": 1472,
      "沐": 1473,
      "沒": 1474,
      "沖": 1475,
      "沙": 1476,
      "沛": 1477,
      "沫": 1478,
      "河": 1479,
      "油": 1480,
      "治": 1481,
      "沼": 1482,
      "沾": 1483,
      "沿": 1484,
      "況": 1485,
      "泉": 1486,
      "泊": 1487,
      "法": 1488,
      "泛": 1489,
      "泡": 1490,
      "波": 1491,
      "泥": 1492,
      "注": 1493,
      "泰": 1494,
      "泳": 1495,
      "洄": 1496,
      "洋": 1497,
      "洗": 1498,
      "洛": 1499,
      "洞": 1500,
      "津": 1501,
      "洩": 1502,
      "洪": 1503,
      "洲": 1504,
      "活": 1505,
      "派": 1506,
      "流": 1507,
      "浩": 1508,
      "浪": 1509,
      "浬": 1510,
      "浮": 1511,
      "浴": 1512,
      "海": 1513,
      "浸": 1514,
      "涅": 1515,
      "消": 1516,
      "涉": 1517,
      "液": 1518,
      "涵": 1519,
      "涼": 1520,
      "淆": 1521,
      "淇": 1522,
      "淋": 1523,
      "淘": 1524,
      "淡": 1525,
      "淨": 1526,
      "淬": 1527,
      "深": 1528,
      "淵": 1529,
      "混": 1530,
      "淹": 1531,
      "淺": 1532,
      "添": 1533,
      "清": 1534,
      "渐": 1535,
      "減": 1536,
      "渡": 1537,
      "渣": 1538,
      "測": 1539,
      "港": 1540,
      "渲": 1541,
      "渴": 1542,
      "游": 1543,
      "渺": 1544,
      "渾": 1545,
      "湊": 1546,
      "湖": 1547,
      "湛": 1548,
      "湧": 1549,
      "湯": 1550,
      "源": 1551,
      "準": 1552,
      "溜": 1553,
      "溝": 1554,
      "溢": 1555,
      "溥": 1556,
      "溪": 1557,
      "溫": 1558,
      "溯": 1559,
      "溶": 1560,
      "滅": 1561,
      "滋": 1562,
      "滌": 1563,
      "滑": 1564,
      "满": 1565,
      "滬": 1566,
      "滯": 1567,
      "滴": 1568,
      "滷": 1569,
      "滾": 1570,
      "滿": 1571,
      "漁": 1572,
      "漂": 1573,
      "漆": 1574,
      "漏": 1575,
      "演": 1576,
      "漢": 1577,
      "漫": 1578,
      "漬": 1579,
      "漲": 1580,
      "漸": 1581,
      "漿": 1582,
      "潑": 1583,
      "潔": 1584,
      "潘": 1585,
      "潛": 1586,
      "潢": 1587,
      "潤": 1588,
      "潭": 1589,
      "潮": 1590,
      "潰": 1591,
      "澀": 1592,
      "澈": 1593,
      "澡": 1594,
      "澤": 1595,
      "澱": 1596,
      "澳": 1597,
      "激": 1598,
      "濃": 1599,
      "濕": 1600,
      "濛": 1601,
      "濟": 1602,
      "濫": 1603,
      "濺": 1604,
      "濾": 1605,
      "瀏": 1606,
      "瀕": 1607,
      "瀚": 1608,
      "瀾": 1609,
      "灌": 1610,
      "灑": 1611,
      "灘": 1612,
      "灣": 1613,
      "火": 1614,
      "灰": 1615,
      "災": 1616,
      "炎": 1617,
      "炒": 1618,
      "炫": 1619,
      "炭": 1620,
      "炮": 1621,
      "炸": 1622,
      "為": 1623,
      "烈": 1624,
      "烏": 1625,
      "烘": 1626,
      "烙": 1627,
      "烛": 1628,
      "烤": 1629,
      "烯": 1630,
      "烷": 1631,
      "烹": 1632,
      "焕": 1633,
      "焙": 1634,
      "無": 1635,
      "焦": 1636,
      "焰": 1637,
      "然": 1638,
      "煉": 1639,
      "煌": 1640,
      "煎": 1641,
      "煙": 1642,
      "煞": 1643,
      "煤": 1644,
      "煥": 1645,
      "照": 1646,
      "煨": 1647,
      "煩": 1648,
      "煮": 1649,
      "熊": 1650,
      "熔": 1651,
      "熟": 1652,
      "熬": 1653,
      "熱": 1654,
      "燃": 1655,
      "燈": 1656,
      "燉": 1657,
      "燒": 1658,
      "燕": 1659,
      "燙": 1660,
      "營": 1661,
      "燥": 1662,
      "燦": 1663,
      "燭": 1664,
      "爆": 1665,
      "爍": 1666,
      "爐": 1667,
      "爛": 1668,
      "爪": 1669,
      "爬": 1670,
      "爭": 1671,
      "父": 1672,
      "爽": 1673,
      "爾": 1674,
      "牆": 1675,
      "片": 1676,
      "版": 1677,
      "牌": 1678,
      "牘": 1679,
      "牙": 1680,
      "牛": 1681,
      "牟": 1682,
      "牠": 1683,
      "牡": 1684,
      "牢": 1685,
      "牧": 1686,
      "物": 1687,
      "牲": 1688,
      "特": 1689,
      "牽": 1690,
      "犀": 1691,
      "犒": 1692,
      "犧": 1693,
      "犬": 1694,
      "犯": 1695,
      "狀": 1696,
      "狂": 1697,
      "狗": 1698,
      "狩": 1699,
      "狹": 1700,
      "狼": 1701,
      "猛": 1702,
      "猜": 1703,
      "猩": 1704,
      "猫": 1705,
      "猴": 1706,
      "猶": 1707,
      "獄": 1708,
      "獅": 1709,
      "獎": 1710,
      "獨": 1711,
      "獲": 1712,
      "獵": 1713,
      "獷": 1714,
      "獸": 1715,
      "獻": 1716,
      "獼": 1717,
      "玄": 1718,
      "率": 1719,
      "玉": 1720,
      "王": 1721,
      "玩": 1722,
      "现": 1723,
      "玳": 1724,
      "玻": 1725,
      "珊": 1726,
      "珍": 1727,
      "珠": 1728,
      "班": 1729,
      "現": 1730,
      "球": 1731,
      "琅": 1732,
      "理": 1733,
      "琉": 1734,
      "琢": 1735,
      "琳": 1736,
      "琴": 1737,
      "琺": 1738,
      "瑁": 1739,
      "瑕": 1740,
      "瑚": 1741,
      "瑞": 1742,
      "瑣": 1743,
      "瑩": 1744,
      "瑪": 1745,
      "瑯": 1746,
      "瑰": 1747,
      "璃": 1748,
      "環": 1749,
      "瓜": 1750,
      "瓣": 1751,
      "瓦": 1752,
      "瓶": 1753,
      "瓷": 1754,
      "甘": 1755,
      "甚": 1756,
      "甜": 1757,
      "生": 1758,
      "產": 1759,
      "用": 1760,
      "田": 1761,
      "由": 1762,
      "甲": 1763,
      "申": 1764,
      "男": 1765,
      "甸": 1766,
      "町": 1767,
      "界": 1768,
      "畏": 1769,
      "留": 1770,
      "畜": 1771,
      "畢": 1772,
      "略": 1773,
      "番": 1774,
      "畫": 1775,
      "異": 1776,
      "當": 1777,
      "畸": 1778,
      "疊": 1779,
      "疏": 1780,
      "疑": 1781,
      "疣": 1782,
      "疫": 1783,
      "疲": 1784,
      "疵": 1785,
      "疹": 1786,
      "疼": 1787,
      "疾": 1788,
      "病": 1789,
      "症": 1790,
      "痕": 1791,
      "痛": 1792,
      "痠": 1793,
      "瘟": 1794,
      "瘠": 1795,
      "瘦": 1796,
      "療": 1797,
      "癌": 1798,
      "癒": 1799,
      "癢": 1800,
      "癮": 1801,
      "登": 1802,
      "發": 1803,
      "白": 1804,
      "百": 1805,
      "皂": 1806,
      "的": 1807,
      "皆": 1808,
      "皇": 1809,
      "皚": 1810,
      "皮": 1811,
      "皺": 1812,
      "盆": 1813,
      "盈": 1814,
      "益": 1815,
      "盎": 1816,
      "盒": 1817,
      "盔": 1818,
      "盛": 1819,
      "盜": 1820,
      "盟": 1821,
      "盡": 1822,
      "監": 1823,
      "盤": 1824,
      "盧": 1825,
      "盪": 1826,
      "目": 1827,
      "盲": 1828,
      "直": 1829,
      "相": 1830,
      "盼": 1831,
      "省": 1832,
      "眉": 1833,
      "看": 1834,
      "真": 1835,
      "眠": 1836,
      "眩": 1837,
      "眷": 1838,
      "眺": 1839,
      "眼": 1840,
      "眾": 1841,
      "着": 1842,
      "睛": 1843,
      "睞": 1844,
      "睡": 1845,
      "督": 1846,
      "睦": 1847,
      "睹": 1848,
      "瞬": 1849,
      "瞭": 1850,
      "瞰": 1851,
      "瞳": 1852,
      "矚": 1853,
      "矢": 1854,
      "知": 1855,
      "矩": 1856,
      "短": 1857,
      "矮": 1858,
      "矯": 1859,
      "石": 1860,
      "矽": 1861,
      "砂": 1862,
      "砌": 1863,
      "砍": 1864,
      "研": 1865,
      "破": 1866,
      "砸": 1867,
      "础": 1868,
      "硝": 1869,
      "硫": 1870,
      "硬": 1871,
      "硼": 1872,
      "碌": 1873,
      "碎": 1874,
      "碑": 1875,
      "碗": 1876,
      "碟": 1877,
      "碧": 1878,
      "碰": 1879,
      "碳": 1880,
      "確": 1881,
      "碼": 1882,
      "磁": 1883,
      "磅": 1884,
      "磐": 1885,
      "磚": 1886,
      "磨": 1887,
      "磷": 1888,
      "磺": 1889,
      "礁": 1890,
      "礎": 1891,
      "礙": 1892,
      "礡": 1893,
      "礦": 1894,
      "示": 1895,
      "社": 1896,
      "祀": 1897,
      "祈": 1898,
      "祖": 1899,
      "祛": 1900,
      "祝": 1901,
      "神": 1902,
      "祟": 1903,
      "祥": 1904,
      "票": 1905,
      "祭": 1906,
      "祿": 1907,
      "禁": 1908,
      "福": 1909,
      "禦": 1910,
      "禧": 1911,
      "禪": 1912,
      "禮": 1913,
      "禽": 1914,
      "秀": 1915,
      "私": 1916,
      "秋": 1917,
      "科": 1918,
      "秒": 1919,
      "秘": 1920,
      "租": 1921,
      "秤": 1922,
      "秦": 1923,
      "移": 1924,
      "稀": 1925,
      "稅": 1926,
      "程": 1927,
      "稍": 1928,
      "稠": 1929,
      "種": 1930,
      "稱": 1931,
      "稻": 1932,
      "稽": 1933,
      "稿": 1934,
      "穀": 1935,
      "穆": 1936,
      "穌": 1937,
      "積": 1938,
      "穎": 1939,
      "穗": 1940,
      "穢": 1941,
      "穩": 1942,
      "穫": 1943,
      "穴": 1944,
      "究": 1945,
      "空": 1946,
      "穿": 1947,
      "突": 1948,
      "窄": 1949,
      "窖": 1950,
      "窗": 1951,
      "窘": 1952,
      "窩": 1953,
      "窮": 1954,
      "窺": 1955,
      "立": 1956,
      "站": 1957,
      "竟": 1958,
      "章": 1959,
      "童": 1960,
      "竭": 1961,
      "端": 1962,
      "競": 1963,
      "竹": 1964,
      "笑": 1965,
      "笔": 1966,
      "符": 1967,
      "笨": 1968,
      "第": 1969,
      "筆": 1970,
      "等": 1971,
      "筋": 1972,
      "筍": 1973,
      "筒": 1974,
      "策": 1975,
      "筷": 1976,
      "箔": 1977,
      "算": 1978,
      "管": 1979,
      "箬": 1980,
      "箭": 1981,
      "箱": 1982,
      "節": 1983,
      "範": 1984,
      "篆": 1985,
      "篇": 1986,
      "築": 1987,
      "篷": 1988,
      "簡": 1989,
      "簧": 1990,
      "簸": 1991,
      "簽": 1992,
      "簾": 1993,
      "籃": 1994,
      "籌": 1995,
      "籍": 1996,
      "籠": 1997,
      "籤": 1998,
      "籲": 1999,
      "米": 2000,
      "籽": 2001,
      "粉": 2002,
      "粒": 2003,
      "粕": 2004,
      "粗": 2005,
      "粘": 2006,
      "粹": 2007,
      "粽": 2008,
      "精": 2009,
      "粿": 2010,
      "糊": 2011,
      "糕": 2012,
      "糖": 2013,
      "糙": 2014,
      "糟": 2015,
      "糠": 2016,
      "糧": 2017,
      "糯": 2018,
      "糰": 2019,
      "系": 2020,
      "紀": 2021,
      "約": 2022,
      "紅": 2023,
      "紉": 2024,
      "紋": 2025,
      "納": 2026,
      "紐": 2027,
      "紓": 2028,
      "純": 2029,
      "紗": 2030,
      "紙": 2031,
      "級": 2032,
      "紛": 2033,
      "紜": 2034,
      "素": 2035,
      "紡": 2036,
      "索": 2037,
      "紫": 2038,
      "紮": 2039,
      "累": 2040,
      "細": 2041,
      "終": 2042,
      "組": 2043,
      "絆": 2044,
      "結": 2045,
      "絕": 2046,
      "絞": 2047,
      "絡": 2048,
      "絢": 2049,
      "給": 2050,
      "絨": 2051,
      "絮": 2052,
      "統": 2053,
      "絲": 2054,
      "絹": 2055,
      "綁": 2056,
      "經": 2057,
      "綜": 2058,
      "綠": 2059,
      "綢": 2060,
      "維": 2061,
      "網": 2062,
      "綴": 2063,
      "綾": 2064,
      "綿": 2065,
      "緊": 2066,
      "緒": 2067,
      "線": 2068,
      "緞": 2069,
      "緣": 2070,
      "編": 2071,
      "緩": 2072,
      "緬": 2073,
      "練": 2074,
      "緹": 2075,
      "緻": 2076,
      "縈": 2077,
      "縛": 2078,
      "縣": 2079,
      "縫": 2080,
      "縮": 2081,
      "縱": 2082,
      "總": 2083,
      "繁": 2084,
      "繃": 2085,
      "織": 2086,
      "繖": 2087,
      "繚": 2088,
      "繞": 2089,
      "繡": 2090,
      "繩": 2091,
      "繪": 2092,
      "繫": 2093,
      "繭": 2094,
      "繳": 2095,
      "繹": 2096,
      "繼": 2097,
      "繽": 2098,
      "續": 2099,
      "纏": 2100,
      "纖": 2101,
      "纜": 2102,
      "红": 2103,
      "纱": 2104,
      "线": 2105,
      "经": 2106,
      "统": 2107,
      "绸": 2108,
      "缎": 2109,
      "缸": 2110,
      "缺": 2111,
      "罐": 2112,
      "罕": 2113,
      "罩": 2114,
      "置": 2115,
      "署": 2116,
      "罷": 2117,
      "羅": 2118,
      "羊": 2119,
      "美": 2120,
      "羞": 2121,
      "群": 2122,
      "義": 2123,
      "羽": 2124,
      "翅": 2125,
      "習": 2126,
      "翔": 2127,
      "翠": 2128,
      "翡": 2129,
      "翰": 2130,
      "翻": 2131,
      "翼": 2132,
      "耀": 2133,
      "老": 2134,
      "考": 2135,
      "者": 2136,
      "而": 2137,
      "耍": 2138,
      "耐": 2139,
      "耕": 2140,
      "耗": 2141,
      "耳": 2142,
      "耶": 2143,
      "聆": 2144,
      "聊": 2145,
      "聖": 2146,
      "聚": 2147,
      "聞": 2148,
      "聯": 2149,
      "聰": 2150,
      "聲": 2151,
      "聳": 2152,
      "職": 2153,
      "聽": 2154,
      "肅": 2155,
      "肆": 2156,
      "肉": 2157,
      "肋": 2158,
      "肌": 2159,
      "肖": 2160,
      "肚": 2161,
      "股": 2162,
      "肢": 2163,
      "肥": 2164,
      "肩": 2165,
      "肪": 2166,
      "肯": 2167,
      "育": 2168,
      "肺": 2169,
      "胃": 2170,
      "胆": 2171,
      "背": 2172,
      "胎": 2173,
      "胞": 2174,
      "胡": 2175,
      "胥": 2176,
      "胭": 2177,
      "胸": 2178,
      "胺": 2179,
      "能": 2180,
      "脂": 2181,
      "脅": 2182,
      "脆": 2183,
      "脈": 2184,
      "脊": 2185,
      "脖": 2186,
      "脫": 2187,
      "脯": 2188,
      "脹": 2189,
      "腐": 2190,
      "腔": 2191,
      "腕": 2192,
      "腥": 2193,
      "腦": 2194,
      "腩": 2195,
      "腫": 2196,
      "腰": 2197,
      "腱": 2198,
      "腳": 2199,
      "腸": 2200,
      "腹": 2201,
      "腿": 2202,
      "膀": 2203,
      "膏": 2204,
      "膚": 2205,
      "膜": 2206,
      "膠": 2207,
      "膨": 2208,
      "膩": 2209,
      "膳": 2210,
      "膽": 2211,
      "臀": 2212,
      "臂": 2213,
      "臉": 2214,
      "臘": 2215,
      "臟": 2216,
      "臣": 2217,
      "臨": 2218,
      "自": 2219,
      "臭": 2220,
      "至": 2221,
      "致": 2222,
      "臺": 2223,
      "與": 2224,
      "興": 2225,
      "舉": 2226,
      "舊": 2227,
      "舍": 2228,
      "舒": 2229,
      "舞": 2230,
      "舟": 2231,
      "航": 2232,
      "般": 2233,
      "船": 2234,
      "艇": 2235,
      "艘": 2236,
      "艙": 2237,
      "艦": 2238,
      "良": 2239,
      "艱": 2240,
      "色": 2241,
      "艷": 2242,
      "艺": 2243,
      "艾": 2244,
      "芋": 2245,
      "芎": 2246,
      "芒": 2247,
      "芝": 2248,
      "芡": 2249,
      "芬": 2250,
      "芯": 2251,
      "花": 2252,
      "芳": 2253,
      "芽": 2254,
      "苔": 2255,
      "苗": 2256,
      "苛": 2257,
      "若": 2258,
      "苦": 2259,
      "苯": 2260,
      "英": 2261,
      "茂": 2262,
      "茄": 2263,
      "茅": 2264,
      "茗": 2265,
      "茲": 2266,
      "茶": 2267,
      "茸": 2268,
      "草": 2269,
      "荒": 2270,
      "荷": 2271,
      "莊": 2272,
      "莓": 2273,
      "莖": 2274,
      "莫": 2275,
      "菁": 2276,
      "菇": 2277,
      "菊": 2278,
      "菌": 2279,
      "菓": 2280,
      "菜": 2281,
      "菠": 2282,
      "華": 2283,
      "菱": 2284,
      "菲": 2285,
      "菸": 2286,
      "萃": 2287,
      "萄": 2288,
      "萊": 2289,
      "萌": 2290,
      "萬": 2291,
      "落": 2292,
      "葉": 2293,
      "著": 2294,
      "葡": 2295,
      "董": 2296,
      "葦": 2297,
      "葫": 2298,
      "蒂": 2299,
      "蒙": 2300,
      "蒜": 2301,
      "蒲": 2302,
      "蒸": 2303,
      "蒼": 2304,
      "蓄": 2305,
      "蓉": 2306,
      "蓋": 2307,
      "蓖": 2308,
      "蓝": 2309,
      "蓬": 2310,
      "蓮": 2311,
      "蔓": 2312,
      "蔔": 2313,
      "蔚": 2314,
      "蔥": 2315,
      "蔬": 2316,
      "蔭": 2317,
      "蔽": 2318,
      "蕊": 2319,
      "蕎": 2320,
      "蕪": 2321,
      "蕭": 2322,
      "蕴": 2323,
      "蕾": 2324,
      "薄": 2325,
      "薈": 2326,
      "薑": 2327,
      "薦": 2328,
      "薩": 2329,
      "薪": 2330,
      "薯": 2331,
      "薰": 2332,
      "藉": 2333,
      "藍": 2334,
      "藏": 2335,
      "藝": 2336,
      "藥": 2337,
      "藻": 2338,
      "蘆": 2339,
      "蘇": 2340,
      "蘊": 2341,
      "蘋": 2342,
      "蘚": 2343,
      "蘭": 2344,
      "蘿": 2345,
      "虎": 2346,
      "虐": 2347,
      "處": 2348,
      "虛": 2349,
      "號": 2350,
      "虧": 2351,
      "虻": 2352,
      "虽": 2353,
      "蚊": 2354,
      "蚋": 2355,
      "蚵": 2356,
      "蛀": 2357,
      "蛋": 2358,
      "蜂": 2359,
      "蜒": 2360,
      "蜜": 2361,
      "蜡": 2362,
      "蜷": 2363,
      "蜿": 2364,
      "蝕": 2365,
      "蝦": 2366,
      "蝶": 2367,
      "融": 2368,
      "螢": 2369,
      "螨": 2370,
      "螺": 2371,
      "蟎": 2372,
      "蟲": 2373,
      "蠔": 2374,
      "蠟": 2375,
      "蠣": 2376,
      "蠶": 2377,
      "蠻": 2378,
      "血": 2379,
      "行": 2380,
      "衍": 2381,
      "術": 2382,
      "街": 2383,
      "衛": 2384,
      "衝": 2385,
      "衡": 2386,
      "衣": 2387,
      "表": 2388,
      "衩": 2389,
      "衫": 2390,
      "衰": 2391,
      "衷": 2392,
      "袁": 2393,
      "袋": 2394,
      "袍": 2395,
      "袖": 2396,
      "被": 2397,
      "袱": 2398,
      "裁": 2399,
      "裂": 2400,
      "装": 2401,
      "裔": 2402,
      "裕": 2403,
      "裙": 2404,
      "補": 2405,
      "裝": 2406,
      "裡": 2407,
      "裹": 2408,
      "製": 2409,
      "褂": 2410,
      "複": 2411,
      "褐": 2412,
      "褥": 2413,
      "褪": 2414,
      "褲": 2415,
      "褶": 2416,
      "襟": 2417,
      "襪": 2418,
      "襯": 2419,
      "襲": 2420,
      "西": 2421,
      "要": 2422,
      "覆": 2423,
      "見": 2424,
      "規": 2425,
      "覓": 2426,
      "視": 2427,
      "親": 2428,
      "覷": 2429,
      "覺": 2430,
      "覽": 2431,
      "觀": 2432,
      "视": 2433,
      "觉": 2434,
      "角": 2435,
      "解": 2436,
      "觸": 2437,
      "言": 2438,
      "訂": 2439,
      "計": 2440,
      "訊": 2441,
      "討": 2442,
      "訓": 2443,
      "託": 2444,
      "記": 2445,
      "訪": 2446,
      "設": 2447,
      "許": 2448,
      "訴": 2449,
      "診": 2450,
      "註": 2451,
      "評": 2452,
      "詞": 2453,
      "詢": 2454,
      "試": 2455,
      "詩": 2456,
      "詮": 2457,
      "話": 2458,
      "該": 2459,
      "詳": 2460,
      "詹": 2461,
      "誌": 2462,
      "認": 2463,
      "誕": 2464,
      "誘": 2465,
      "語": 2466,
      "誠": 2467,
      "誤": 2468,
      "說": 2469,
      "課": 2470,
      "誼": 2471,
      "調": 2472,
      "談": 2473,
      "請": 2474,
      "論": 2475,
      "諜": 2476,
      "諧": 2477,
      "諮": 2478,
      "諸": 2479,
      "諾": 2480,
      "謂": 2481,
      "謎": 2482,
      "謐": 2483,
      "講": 2484,
      "謝": 2485,
      "謹": 2486,
      "證": 2487,
      "識": 2488,
      "譜": 2489,
      "警": 2490,
      "議": 2491,
      "護": 2492,
      "譽": 2493,
      "讀": 2494,
      "變": 2495,
      "讓": 2496,
      "讚": 2497,
      "计": 2498,
      "认": 2499,
      "讲": 2500,
      "设": 2501,
      "试": 2502,
      "调": 2503,
      "谷": 2504,
      "豆": 2505,
      "豎": 2506,
      "豐": 2507,
      "豔": 2508,
      "豚": 2509,
      "象": 2510,
      "豪": 2511,
      "豬": 2512,
      "豹": 2513,
      "貌": 2514,
      "貓": 2515,
      "貝": 2516,
      "貞": 2517,
      "負": 2518,
      "財": 2519,
      "貢": 2520,
      "貧": 2521,
      "貨": 2522,
      "販": 2523,
      "貪": 2524,
      "貫": 2525,
      "責": 2526,
      "貴": 2527,
      "買": 2528,
      "貸": 2529,
      "費": 2530,
      "貼": 2531,
      "貿": 2532,
      "賀": 2533,
      "資": 2534,
      "賈": 2535,
      "賊": 2536,
      "賓": 2537,
      "賜": 2538,
      "賞": 2539,
      "賢": 2540,
      "賣": 2541,
      "賦": 2542,
      "質": 2543,
      "賴": 2544,
      "購": 2545,
      "賽": 2546,
      "贈": 2547,
      "贏": 2548,
      "质": 2549,
      "赫": 2550,
      "走": 2551,
      "起": 2552,
      "趁": 2553,
      "超": 2554,
      "越": 2555,
      "趕": 2556,
      "趟": 2557,
      "趣": 2558,
      "趨": 2559,
      "足": 2560,
      "趴": 2561,
      "跌": 2562,
      "跑": 2563,
      "距": 2564,
      "跟": 2565,
      "跡": 2566,
      "跨": 2567,
      "跪": 2568,
      "路": 2569,
      "跳": 2570,
      "踏": 2571,
      "踝": 2572,
      "踩": 2573,
      "踴": 2574,
      "蹄": 2575,
      "蹟": 2576,
      "蹤": 2577,
      "蹭": 2578,
      "蹴": 2579,
      "躁": 2580,
      "躍": 2581,
      "身": 2582,
      "躲": 2583,
      "躺": 2584,
      "軀": 2585,
      "車": 2586,
      "軌": 2587,
      "軍": 2588,
      "軟": 2589,
      "軸": 2590,
      "較": 2591,
      "載": 2592,
      "輒": 2593,
      "輔": 2594,
      "輕": 2595,
      "輛": 2596,
      "輝": 2597,
      "輩": 2598,
      "輪": 2599,
      "輯": 2600,
      "輸": 2601,
      "輻": 2602,
      "轂": 2603,
      "轄": 2604,
      "轉": 2605,
      "轟": 2606,
      "较": 2607,
      "辛": 2608,
      "辟": 2609,
      "辣": 2610,
      "辦": 2611,
      "辨": 2612,
      "農": 2613,
      "达": 2614,
      "迅": 2615,
      "迎": 2616,
      "近": 2617,
      "返": 2618,
      "进": 2619,
      "迦": 2620,
      "迪": 2621,
      "迫": 2622,
      "述": 2623,
      "迴": 2624,
      "迷": 2625,
      "追": 2626,
      "退": 2627,
      "送": 2628,
      "逃": 2629,
      "逆": 2630,
      "选": 2631,
      "透": 2632,
      "逐": 2633,
      "途": 2634,
      "這": 2635,
      "通": 2636,
      "逛": 2637,
      "逝": 2638,
      "速": 2639,
      "造": 2640,
      "連": 2641,
      "週": 2642,
      "進": 2643,
      "逸": 2644,
      "逼": 2645,
      "遂": 2646,
      "遇": 2647,
      "遊": 2648,
      "運": 2649,
      "遍": 2650,
      "過": 2651,
      "道": 2652,
      "達": 2653,
      "遙": 2654,
      "遜": 2655,
      "遞": 2656,
      "遠": 2657,
      "適": 2658,
      "遭": 2659,
      "遮": 2660,
      "遲": 2661,
      "遵": 2662,
      "遷": 2663,
      "選": 2664,
      "遺": 2665,
      "避": 2666,
      "邀": 2667,
      "邃": 2668,
      "還": 2669,
      "邊": 2670,
      "邏": 2671,
      "那": 2672,
      "邦": 2673,
      "邪": 2674,
      "邵": 2675,
      "郁": 2676,
      "郡": 2677,
      "部": 2678,
      "郵": 2679,
      "都": 2680,
      "鄉": 2681,
      "鄒": 2682,
      "鄧": 2683,
      "鄰": 2684,
      "配": 2685,
      "酒": 2686,
      "酚": 2687,
      "酥": 2688,
      "酪": 2689,
      "酯": 2690,
      "酵": 2691,
      "酶": 2692,
      "酷": 2693,
      "酸": 2694,
      "醃": 2695,
      "醇": 2696,
      "醉": 2697,
      "醋": 2698,
      "醒": 2699,
      "醚": 2700,
      "醛": 2701,
      "醫": 2702,
      "醬": 2703,
      "醯": 2704,
      "采": 2705,
      "釋": 2706,
      "里": 2707,
      "重": 2708,
      "野": 2709,
      "量": 2710,
      "金": 2711,
      "釘": 2712,
      "針": 2713,
      "釣": 2714,
      "釹": 2715,
      "鈉": 2716,
      "鈍": 2717,
      "鈐": 2718,
      "鈕": 2719,
      "鈣": 2720,
      "鈦": 2721,
      "鈴": 2722,
      "鈽": 2723,
      "鉅": 2724,
      "鉗": 2725,
      "鉚": 2726,
      "鉛": 2727,
      "鉤": 2728,
      "鉬": 2729,
      "鉻": 2730,
      "銀": 2731,
      "銅": 2732,
      "銳": 2733,
      "銷": 2734,
      "鋁": 2735,
      "鋒": 2736,
      "鋪": 2737,
      "鋰": 2738,
      "鋸": 2739,
      "鋼": 2740,
      "錄": 2741,
      "錐": 2742,
      "錘": 2743,
      "錢": 2744,
      "錦": 2745,
      "錫": 2746,
      "錯": 2747,
      "錶": 2748,
      "鍊": 2749,
      "鍋": 2750,
      "鍍": 2751,
      "鍛": 2752,
      "鍵": 2753,
      "鎂": 2754,
      "鎊": 2755,
      "鎖": 2756,
      "鎢": 2757,
      "鎮": 2758,
      "鎳": 2759,
      "鏇": 2760,
      "鏈": 2761,
      "鏡": 2762,
      "鏽": 2763,
      "鐘": 2764,
      "鐵": 2765,
      "鐺": 2766,
      "鑄": 2767,
      "鑑": 2768,
      "鑒": 2769,
      "鑰": 2770,
      "鑲": 2771,
      "鑽": 2772,
      "鑾": 2773,
      "鑿": 2774,
      "锦": 2775,
      "锶": 2776,
      "長": 2777,
      "长": 2778,
      "門": 2779,
      "閂": 2780,
      "閃": 2781,
      "閉": 2782,
      "開": 2783,
      "閒": 2784,
      "間": 2785,
      "閘": 2786,
      "閣": 2787,
      "閩": 2788,
      "閱": 2789,
      "闆": 2790,
      "闊": 2791,
      "闔": 2792,
      "關": 2793,
      "闢": 2794,
      "防": 2795,
      "阻": 2796,
      "阿": 2797,
      "附": 2798,
      "陋": 2799,
      "陌": 2800,
      "降": 2801,
      "限": 2802,
      "陝": 2803,
      "陡": 2804,
      "院": 2805,
      "陣": 2806,
      "除": 2807,
      "陪": 2808,
      "陰": 2809,
      "陳": 2810,
      "陵": 2811,
      "陶": 2812,
      "陷": 2813,
      "陸": 2814,
      "陽": 2815,
      "隆": 2816,
      "隊": 2817,
      "階": 2818,
      "隔": 2819,
      "隕": 2820,
      "隙": 2821,
      "際": 2822,
      "障": 2823,
      "隨": 2824,
      "險": 2825,
      "隱": 2826,
      "隻": 2827,
      "雀": 2828,
      "雄": 2829,
      "雅": 2830,
      "集": 2831,
      "雌": 2832,
      "雍": 2833,
      "雕": 2834,
      "雖": 2835,
      "雙": 2836,
      "雛": 2837,
      "雜": 2838,
      "雞": 2839,
      "離": 2840,
      "難": 2841,
      "雨": 2842,
      "雪": 2843,
      "雲": 2844,
      "零": 2845,
      "雷": 2846,
      "電": 2847,
      "需": 2848,
      "震": 2849,
      "霉": 2850,
      "霍": 2851,
      "霜": 2852,
      "霞": 2853,
      "霧": 2854,
      "露": 2855,
      "霸": 2856,
      "靈": 2857,
      "青": 2858,
      "靛": 2859,
      "靜": 2860,
      "非": 2861,
      "靠": 2862,
      "靡": 2863,
      "面": 2864,
      "革": 2865,
      "靴": 2866,
      "鞋": 2867,
      "鞏": 2868,
      "鞣": 2869,
      "韌": 2870,
      "韓": 2871,
      "音": 2872,
      "韵": 2873,
      "韻": 2874,
      "響": 2875,
      "頁": 2876,
      "頂": 2877,
      "頃": 2878,
      "項": 2879,
      "順": 2880,
      "須": 2881,
      "頌": 2882,
      "預": 2883,
      "頑": 2884,
      "頓": 2885,
      "頗": 2886,
      "領": 2887,
      "頜": 2888,
      "頭": 2889,
      "頰": 2890,
      "頸": 2891,
      "頻": 2892,
      "顆": 2893,
      "題": 2894,
      "額": 2895,
      "顎": 2896,
      "顏": 2897,
      "顔": 2898,
      "願": 2899,
      "顛": 2900,
      "類": 2901,
      "顧": 2902,
      "顯": 2903,
      "風": 2904,
      "颱": 2905,
      "飄": 2906,
      "飆": 2907,
      "风": 2908,
      "飛": 2909,
      "食": 2910,
      "飢": 2911,
      "飪": 2912,
      "飯": 2913,
      "飲": 2914,
      "飼": 2915,
      "飽": 2916,
      "飾": 2917,
      "餃": 2918,
      "餅": 2919,
      "養": 2920,
      "餐": 2921,
      "餓": 2922,
      "餘": 2923,
      "餚": 2924,
      "餞": 2925,
      "餡": 2926,
      "館": 2927,
      "饋": 2928,
      "饒": 2929,
      "饗": 2930,
      "饞": 2931,
      "饰": 2932,
      "首": 2933,
      "香": 2934,
      "馨": 2935,
      "馬": 2936,
      "馭": 2937,
      "馴": 2938,
      "馺": 2939,
      "駁": 2940,
      "駐": 2941,
      "駕": 2942,
      "駛": 2943,
      "駟": 2944,
      "駭": 2945,
      "駿": 2946,
      "騎": 2947,
      "騰": 2948,
      "驅": 2949,
      "驕": 2950,
      "驗": 2951,
      "驚": 2952,
      "驟": 2953,
      "骨": 2954,
      "骼": 2955,
      "髒": 2956,
      "髓": 2957,
      "體": 2958,
      "高": 2959,
      "髮": 2960,
      "鬃": 2961,
      "鬆": 2962,
      "鬍": 2963,
      "鬚": 2964,
      "鬥": 2965,
      "鬧": 2966,
      "鬼": 2967,
      "魂": 2968,
      "魅": 2969,
      "魚": 2970,
      "魯": 2971,
      "鮭": 2972,
      "鮮": 2973,
      "鯉": 2974,
      "鯊": 2975,
      "鯽": 2976,
      "鰭": 2977,
      "鱗": 2978,
      "鳥": 2979,
      "鳳": 2980,
      "鳴": 2981,
      "鴉": 2982,
      "鴨": 2983,
      "鵑": 2984,
      "鵜": 2985,
      "鵝": 2986,
      "鵡": 2987,
      "鵲": 2988,
      "鶇": 2989,
      "鶘": 2990,
      "鶩": 2991,
      "鷳": 2992,
      "鸚": 2993,
      "鸛": 2994,
      "鹅": 2995,
      "鹹": 2996,
      "鹼": 2997,
      "鹽": 2998,
      "鹿": 2999,
      "麗": 3000,
      "麥": 3001,
      "麯": 3002,
      "麵": 3003,
      "麻": 3004,
      "麼": 3005,
      "黃": 3006,
      "黎": 3007,
      "黏": 3008,
      "黑": 3009,
      "默": 3010,
      "點": 3011,
      "黴": 3012,
      "鼓": 3013,
      "鼠": 3014,
      "鼻": 3015,
      "齊": 3016,
      "齒": 3017,
      "齡": 3018,
      "齦": 3019,
      "龍": 3020,
      "龐": 3021,
      "龜": 3022,
      "雖然": 3023,
      "因為": 3024,
      "問題": 3025,
      "回覆": 3026,
      "所以": 3027,
      "價格": 3028,
      "什麼": 3029,
      "現在": 3030,
      "早期": 3031,
      "00": 3032,
      "個人": 3033,
      "為什麼": 3034,
      "台灣": 3035,
      "使用": 3036,
      "我個人": 3037,
      "當時": 3038,
      "主要": 3039,
      "覺得": 3040,
      "發展": 3041,
      "設計": 3042,
      "選擇": 3043,
      "為了": 3044,
      "可以": 3045,
      "例如": 3046,
      "技術": 3047,
      "但是": 3048,
      "我個人覺得": 3049,
      "成本": 3050,
      "不同": 3051,
      "傳統": 3052,
      "現代": 3053,
      "功能": 3054,
      "通常": 3055,
      "需要": 3056,
      "許多": 3057,
      "非常": 3058,
      "重要": 3059,
      "成為": 3060,
      "牠們": 3061,
      "開始": 3062,
      "方便": 3063,
      "需求": 3064,
      "最初": 3065,
      "逐漸": 3066,
      "提升": 3067,
      "面上": 3068,
      "而且": 3069,
      "不等": 3070,
      "人們": 3071,
      "市面上": 3072,
      "容易": 3073,
      "溯到": 3074,
      "追溯到": 3075,
      "獨特": 3076,
      "環境": 3077,
      "提供": 3078,
      "普及": 3079,
      "之間": 3080,
      "可能": 3081,
      "隨著": 3082,
      "生活": 3083,
      "材質": 3084,
      "文化": 3085,
      "代表": 3086,
      "方式": 3087,
      "有些": 3088,
      "相對": 3089,
      "000": 3090,
      "成分": 3091,
      "雖然現在": 3092,
      "元不等": 3093,
      "19": 3094,
      "甚至": 3095,
      "來說": 3096,
      "認為": 3097,
      "影響": 3098,
      "系統": 3099,
      "因此": 3100,
      "體驗": 3101,
      "製作": 3102,
      "因為當時": 3103,
      "常見": 3104,
      "目前": 3105,
      "一般": 3106,
      "世紀": 3107,
      "它們": 3108,
      "一種": 3109,
      "歷史": 3110,
      "食物": 3111,
      "從幾": 3112,
      "獨特的": 3113,
      "有效": 3114,
      "受到": 3115,
      "因為早期": 3116,
      "其他": 3117,
      "不僅": 3118,
      "安全": 3119,
      "其實": 3120,
      "工具": 3121,
      "值得": 3122,
      "較高": 3123,
      "時間": 3124,
      "多樣": 3125,
      "出現": 3126,
      "絕對": 3127,
      "元之間": 3128,
      "品牌": 3129,
      "機的": 3130,
      "差異": 3131,
      "台幣": 3132,
      "品質": 3133,
      "起源": 3134,
      "這些": 3135,
      "價格也": 3136,
      "現在的": 3137,
      "現在市面上": 3138,
      "它的": 3139,
      "結構": 3140,
      "50": 3141,
      "推薦": 3142,
      "清潔": 3143,
      "我們": 3144,
      "讓人": 3145,
      "口感": 3146,
      "擁有": 3147,
      "產生": 3148,
      "落在": 3149,
      "可以追溯到": 3150,
      "20": 3151,
      "採用": 3152,
      "顏色": 3153,
      "適合": 3154,
      "年代": 3155,
      "初期": 3156,
      "時期": 3157,
      "這麼": 3158,
      "早期的": 3159,
      "元到": 3160,
      "舒適": 3161,
      "降低": 3162,
      "加入": 3163,
      "好的": 3164,
      "自己": 3165,
      "這種": 3166,
      "電腦": 3167,
      "保護": 3168,
      "常見的": 3169,
      "特殊": 3170,
      "真的": 3171,
      "效率": 3172,
      "都有": 3173,
      "用於": 3174,
      "進步": 3175,
      "家用": 3176,
      "的價格": 3177,
      "簡單": 3178,
      "空間": 3179,
      "豐富": 3180,
      "增加": 3181,
      "大的": 3182,
      "一個": 3183,
      "材料": 3184,
      "大量": 3185,
      "如此": 3186,
      "手機": 3187,
      "演變": 3188,
      "約在": 3189,
      "風味": 3190,
      "效果": 3191,
      "更多": 3192,
      "台灣的": 3193,
      "科技": 3194,
      "新台幣": 3195,
      "自然": 3196,
      "如果": 3197,
      "是為了": 3198,
      "比較": 3199,
      "重要的": 3200,
      "上的": 3201,
      "實用": 3202,
      "數百": 3203,
      "風格": 3204,
      "喜歡": 3205,
      "產品": 3206,
      "象徵": 3207,
      "還是": 3208,
      "鳳梨": 3209,
      "容量": 3210,
      "動物": 3211,
      "各種": 3212,
      "能有效": 3213,
      "家庭": 3214,
      "搭配": 3215,
      "的設計": 3216,
      "像是": 3217,
      "利用": 3218,
      "左右": 3219,
      "起來": 3220,
      "因為它": 3221,
      "取代": 3222,
      "部分": 3223,
      "為什麼會": 3224,
      "80": 3225,
      "帶來": 3226,
      "最早": 3227,
      "耐用": 3228,
      "作為": 3229,
      "這個": 3230,
      "生態": 3231,
      "具有": 3232,
      "已經": 3233,
      "市場": 3234,
      "改良": 3235,
      "保存": 3236,
      "蚵仔": 3237,
      "牠們的": 3238,
      "並非": 3239,
      "導致": 3240,
      "除了": 3241,
      "一些": 3242,
      "也能": 3243,
      "來越": 3244,
      "大幅": 3245,
      "時代": 3246,
      "的需求": 3247,
      "速度": 3248,
      "不斷": 3249,
      "越來越": 3250,
      "塑膠": 3251,
      "對於": 3252,
      "更是": 3253,
      "色彩": 3254,
      "最初的": 3255,
      "店家": 3256,
      "金屬": 3257,
      "只是": 3258,
      "建議": 3259,
      "樣的": 3260,
      "一定": 3261,
      "之所以": 3262,
      "可追溯到": 3263,
      "無論": 3264,
      "特別": 3265,
      "相關": 3266,
      "過程": 3267,
      "nd": 3268,
      "廣泛": 3269,
      "整體": 3270,
      "沒有": 3271,
      "」,": 3272,
      "消費": 3273,
      "生產": 3274,
      "看到": 3275,
      "纖維": 3276,
      "10": 3277,
      "之一": 3278,
      "但隨著": 3279,
      "價值": 3280,
      "智慧": 3281,
      "親民": 3282,
      "發展出": 3283,
      "加上": 3284,
      "活動": 3285,
      "為何": 3286,
      "能力": 3287,
      "價格從幾": 3288,
      "500": 3289,
      "仍然": 3290,
      "數千": 3291,
      "減少": 3292,
      "穩定": 3293,
      "追求": 3294,
      "主要成分": 3295,
      "台北": 3296,
      "形成": 3297,
      "後來": 3298,
      "滿足": 3299,
      "的發展": 3300,
      "的重要": 3301,
      "複雜": 3302,
      "超過": 3303,
      "以及": 3304,
      "多元": 3305,
      "的起源": 3306,
      "空氣": 3307,
      "健康": 3308,
      "哪些": 3309,
      "地區": 3310,
      "日本": 3311,
      "發明": 3312,
      "考量": 3313,
      "尤其": 3314,
      "芒果": 3315,
      "食材": 3316,
      "人類": 3317,
      "形狀": 3318,
      "感受到": 3319,
      "持續": 3320,
      "溫度": 3321,
      "製造": 3322,
      "不同的": 3323,
      "一般來說": 3324,
      "多樣化": 3325,
      "ro": 3326,
      "運動": 3327,
      "限制": 3328,
      "全球": 3329,
      "更高": 3330,
      "歡迎": 3331,
      "玻璃": 3332,
      "包含": 3333,
      "古代": 3334,
      "圖案": 3335,
      "豆腐": 3336,
      "但它": 3337,
      "冰箱": 3338,
      "源於": 3339,
      "筆記": 3340,
      "處理": 3341,
      "30": 3342,
      "依然": 3343,
      "機車": 3344,
      "相當": 3345,
      "調整": 3346,
      "當時的": 3347,
      "尺寸": 3348,
      "工業": 3349,
      "數量": 3350,
      "的美": 3351,
      "結合": 3352,
      "進行": 3353,
      "避免": 3354,
      "儲存": 3355,
      "吸引": 3356,
      "才能": 3357,
      "運輸": 3358,
      "關鍵": 3359,
      "電子": 3360,
      "如何": 3361,
      "子的": 3362,
      "性和": 3363,
      "社會": 3364,
      "透過": 3365,
      "交通": 3366,
      "以上": 3367,
      "受歡迎": 3368,
      "口味": 3369,
      "款式": 3370,
      "珍珠": 3371,
      "研究": 3372,
      "經濟": 3373,
      "And": 3374,
      "公尺": 3375,
      "有限": 3376,
      "有什麼": 3377,
      "傳統的": 3378,
      "19世紀": 3379,
      "60": 3380,
      "id": 3381,
      "便利": 3382,
      "嘗試": 3383,
      "習慣": 3384,
      "不是": 3385,
      "地位": 3386,
      "200": 3387,
      "廠商": 3388,
      "應用": 3389,
      "為主": 3390,
      "觀察": 3391,
      "較低": 3392,
      "roid": 3393,
      "Android": 3394,
      "le": 3395,
      "也更": 3396,
      "充滿": 3397,
      "圓的": 3398,
      "強調": 3399,
      "感受": 3400,
      "機種": 3401,
      "特色": 3402,
      "眼鏡": 3403,
      "觀光": 3404,
      "那種": 3405,
      "代表著": 3406,
      "絕對是": 3407,
      "不可": 3408,
      "性的": 3409,
      "資源": 3410,
      "Pa": 3411,
      "天然": 3412,
      "日常": 3413,
      "植物": 3414,
      "蒸汽": 3415,
      "重量": 3416,
      "快速": 3417,
      "普遍": 3418,
      "歷程": 3419,
      "的選擇": 3420,
      "種類": 3421,
      "能提供": 3422,
      "自動": 3423,
      "變化": 3424,
      "里山": 3425,
      "阿里山": 3426,
      "高昂": 3427,
      "蚵仔煎": 3428,
      "無論是": 3429,
      "在於": 3430,
      "數位": 3431,
      "是什麼": 3432,
      "流行": 3433,
      "使用者": 3434,
      "人的": 3435,
      "冷氣": 3436,
      "多為": 3437,
      "工作": 3438,
      "的歷史": 3439,
      "中國": 3440,
      "有關": 3441,
      "無法": 3442,
      "科學": 3443,
      "等等": 3444,
      "自於": 3445,
      "行動": 3446,
      "為什麼現代": 3447,
      "油炸": 3448,
      "的人": 3449,
      "符合": 3450,
      "視覺": 3451,
      "角色": 3452,
      "造成": 3453,
      "主要成分是": 3454,
      "大家": 3455,
      "生物": 3456,
      "直接": 3457,
      "約落在": 3458,
      "郵輪": 3459,
      "令人": 3460,
      "小吃": 3461,
      "希望": 3462,
      "延長": 3463,
      "日治": 3464,
      "而異": 3465,
      "西門": 3466,
      "不僅是": 3467,
      "的起源可以追溯到": 3468,
      "300": 3469,
      "平板": 3470,
      "控制": 3471,
      "難以": 3472,
      "公車": 3473,
      "數據": 3474,
      "更加": 3475,
      "森林": 3476,
      "添加": 3477,
      "體積": 3478,
      "消費者": 3479,
      "原因": 3480,
      "息息": 3481,
      "維持": 3482,
      "雖然現代": 3483,
      "我個人認為": 3484,
      "息息相關": 3485,
      "中秋": 3486,
      "也是": 3487,
      "奶茶": 3488,
      "專業": 3489,
      "展現": 3490,
      "臭豆腐": 3491,
      "都能": 3492,
      "中的": 3493,
      "主流": 3494,
      "具備": 3495,
      "加熱": 3496,
      "味道": 3497,
      "書寫": 3498,
      "玉山": 3499,
      "萬元不等": 3500,
      "藍牙": 3501,
      "製成": 3502,
      "記憶": 3503,
      "除濕": 3504,
      "高度": 3505,
      "日治時期": 3506,
      "如今": 3507,
      "存在": 3508,
      "就是": 3509,
      "很多": 3510,
      "感覺": 3511,
      "有所": 3512,
      "氛圍": 3513,
      "照片": 3514,
      "糯米": 3515,
      "經常": 3516,
      "優勢": 3517,
      "入門": 3518,
      "包裝": 3519,
      "可達": 3520,
      "會加入": 3521,
      "牛肉": 3522,
      "範圍": 3523,
      "習俗": 3524,
      "藍鵲": 3525,
      "通常在": 3526,
      "鳳梨酥": 3527,
      "最早的": 3528,
      "創造": 3529,
      "因素": 3530,
      "工藝": 3531,
      "推出": 3532,
      "昂貴": 3533,
      "有哪些": 3534,
      "紙張": 3535,
      "經過": 3536,
      "雞排": 3537,
      "功能性": 3538,
      "國家": 3539,
      "夜市": 3540,
      "很大": 3541,
      "找到": 3542,
      "政府": 3543,
      "特定": 3544,
      "環保": 3545,
      "經典": 3546,
      "因為當時的": 3547,
      "絕對值得": 3548,
      "18": 3549,
      "上千": 3550,
      "公斤": 3551,
      "單純": 3552,
      "扮演": 3553,
      "改善": 3554,
      "改變": 3555,
      "是個": 3556,
      "更能": 3557,
      "發現": 3558,
      "的地": 3559,
      "藝術": 3560,
      "螢幕": 3561,
      "體重": 3562,
      "pp": 3563,
      "也會": 3564,
      "元件": 3565,
      "方面": 3566,
      "萬元": 3567,
      "視為": 3568,
      "適應": 3569,
      "風扇": 3570,
      "魅力": 3571,
      "SB": 3572,
      "USB": 3573,
      "保育": 3574,
      "即使": 3575,
      "大眾": 3576,
      "我覺得": 3577,
      "數十": 3578,
      "文件": 3579,
      "洗衣": 3580,
      "美食": 3581,
      "裝飾": 3582,
      "踏車": 3583,
      "開發": 3584,
      "隨身": 3585,
      "技術進步": 3586,
      "自己的": 3587,
      "便宜": 3588,
      "很喜歡": 3589,
      "捷運": 3590,
      "提高": 3591,
      "機器": 3592,
      "演化": 3593,
      "的一": 3594,
      "設備": 3595,
      "費用": 3596,
      "造型": 3597,
      "長時間": 3598,
      "我個人推薦": 3599,
      "通常是": 3600,
      "隨身碟": 3601,
      "不高": 3602,
      "故宮": 3603,
      "滷肉": 3604,
      "用途": 3605,
      "硬碟": 3606,
      "確實": 3607,
      "美國": 3608,
      "顏料": 3609,
      "雖然早期": 3610,
      "其實跟": 3611,
      "下降": 3612,
      "呈現": 3613,
      "峽谷": 3614,
      "我認為": 3615,
      "旅行": 3616,
      "會使用": 3617,
      "條紋": 3618,
      "機械": 3619,
      "能讓": 3620,
      "腳踏車": 3621,
      "較為": 3622,
      "起源於": 3623,
      "牛肉麵": 3624,
      "也有": 3625,
      "使得": 3626,
      "或缺": 3627,
      "根據": 3628,
      "欣賞": 3629,
      "氣味": 3630,
      "而言": 3631,
      "辦公": 3632,
      "迅速": 3633,
      "透明": 3634,
      "黑熊": 3635,
      "使用的": 3636,
      "不可或缺": 3637,
      "HD": 3638,
      "儀式": 3639,
      "圓形": 3640,
      "大型": 3641,
      "完全": 3642,
      "定期": 3643,
      "攜帶": 3644,
      "支付": 3645,
      "濾網": 3646,
      "色的": 3647,
      "誕生": 3648,
      "都是": 3649,
      "取代了": 3650,
      "智慧型": 3651,
      "珍珠奶茶": 3652,
      "歷程中": 3653,
      "西門町": 3654,
      "中秋餅": 3655,
      "),": 3656,
      "App": 3657,
      "不過": 3658,
      "保持": 3659,
      "基礎": 3660,
      "大小": 3661,
      "娛樂": 3662,
      "成熟": 3663,
      "由於": 3664,
      "的使用": 3665,
      "轉變": 3666,
      "一定要": 3667,
      "3000": 3668,
      "一次": 3669,
      "不易": 3670,
      "九份": 3671,
      "售價": 3672,
      "地瓜": 3673,
      "它在": 3674,
      "密度": 3675,
      "源自於": 3676,
      "稱為": 3677,
      "質感": 3678,
      "足夠": 3679,
      "電源": 3680,
      "顯示": 3681,
      "雖然早期的": 3682,
      "最初是": 3683,
      "簡單的": 3684,
      "公里": 3685,
      "吸力": 3686,
      "帶有": 3687,
      "意義": 3688,
      "感到": 3689,
      "操作": 3690,
      "烤箱": 3691,
      "生存": 3692,
      "這樣": 3693,
      "電風扇": 3694,
      "芒果冰": 3695,
      "便利性": 3696,
      "Q彈": 3697,
      "SD": 3698,
      "一樣": 3699,
      "公司": 3700,
      "在台灣": 3701,
      "大腸": 3702,
      "將其": 3703,
      "族群": 3704,
      "櫻花": 3705,
      "烘焙": 3706,
      "由器": 3707,
      "的好": 3708,
      "確保": 3709,
      "精確": 3710,
      "美觀": 3711,
      "變得": 3712,
      "路由器": 3713,
      "為什麼要": 3714,
      "安全性": 3715,
      "生態系統": 3716,
      "平板電腦": 3717,
      "Ah": 3718,
      "mAh": 3719,
      "信用": 3720,
      "十元到": 3721,
      "吻鮭": 3722,
      "品種": 3723,
      "掃描": 3724,
      "是因為": 3725,
      "本身": 3726,
      "每年": 3727,
      "版本": 3728,
      "而不是": 3729,
      "聲音": 3730,
      "解決": 3731,
      "購買": 3732,
      "鉤吻鮭": 3733,
      "電池": 3734,
      "20世紀": 3735,
      "行動電源": 3736,
      "滷肉飯": 3737,
      "櫻花鉤吻鮭": 3738,
      "博物": 3739,
      "只有": 3740,
      "型電腦": 3741,
      "基本": 3742,
      "度和": 3743,
      "收納": 3744,
      "故事": 3745,
      "特性": 3746,
      "產業": 3747,
      "的方式": 3748,
      "知道": 3749,
      "而是": 3750,
      "肉圓": 3751,
      "能帶來": 3752,
      "香氣": 3753,
      "所以逐漸": 3754,
      "目前市面上": 3755,
      "豐富的": 3756,
      "USB隨身碟": 3757,
      "100": 3758,
      "作用": 3759,
      "定了": 3760,
      "小腸": 3761,
      "平均": 3762,
      "幾百": 3763,
      "是台灣": 3764,
      "柔軟": 3765,
      "機會": 3766,
      "火箭": 3767,
      "發酵": 3768,
      "粽子": 3769,
      "美元": 3770,
      "考慮": 3771,
      "聖誕": 3772,
      "表現": 3773,
      "預算": 3774,
      "雖然最初的": 3775,
      "我個人很喜歡": 3776,
      "人們對": 3777,
      "相對親民": 3778,
      "演變成": 3779,
      "筆記型電腦": 3780,
      "150": 3781,
      "了解": 3782,
      "保鮮": 3783,
      "取決": 3784,
      "墾丁": 3785,
      "外觀": 3786,
      "多種": 3787,
      "或是": 3788,
      "欒樹": 3789,
      "衛生": 3790,
      "表達": 3791,
      "負擔": 3792,
      "長期": 3793,
      "電動": 3794,
      "高鐵": 3795,
      "現在市面上常見的": 3796,
      "地瓜粉": 3797,
      "取決於": 3798,
      "上百": 3799,
      "他們": 3800,
      "內部": 3801,
      "剪刀": 3802,
      "化的": 3803,
      "實際": 3804,
      "挑戰": 3805,
      "斯拉": 3806,
      "日月": 3807,
      "書桌": 3808,
      "水果": 3809,
      "濃郁": 3810,
      "特斯拉": 3811,
      "貴族": 3812,
      "路線": 3813,
      "農曆": 3814,
      "鏡片": 3815,
      "革命": 3816,
      "雖然初期": 3817,
      "但是它": 3818,
      "成為台灣": 3819,
      "尤其是": 3820,
      "日月潭": 3821,
      "SSD": 3822,
      "er": 3823,
      "不再": 3824,
      "南瓜": 3825,
      "口罩": 3826,
      "手錶": 3827,
      "是一種": 3828,
      "更容易": 3829,
      "果實": 3830,
      "維護": 3831,
      "網路": 3832,
      "美味": 3833,
      "袋鼠": 3834,
      "鑰匙": 3835,
      "開放": 3836,
      "飛行": 3837,
      "高的": 3838,
      "價格較高": 3839,
      "為什麼現在的": 3840,
      "台灣黑熊": 3841,
      "主要用於": 3842,
      "大幅提升": 3843,
      "之所以能": 3844,
      "過程中": 3845,
      "T恤": 3846,
      "下來": 3847,
      "你知道": 3848,
      "十到": 3849,
      "太陽": 3850,
      "奠定了": 3851,
      "妝台": 3852,
      "感光": 3853,
      "更換": 3854,
      "繁殖": 3855,
      "良好的": 3856,
      "藍色": 3857,
      "裝置": 3858,
      "這裡": 3859,
      "鐵路": 3860,
      "閱讀": 3861,
      "鮮豔": 3862,
      "雖然傳統": 3863,
      "價格約在": 3864,
      "科技進步": 3865,
      "玻璃瓶": 3866,
      "蒸汽機": 3867,
      "你知道嗎": 3868,
      "5000": 3869,
      "EP": 3870,
      "元至": 3871,
      "公園": 3872,
      "創新": 3873,
      "包小腸": 3874,
      "固定": 3875,
      "場合": 3876,
      "壓力": 3877,
      "就能": 3878,
      "年前": 3879,
      "幾乎": 3880,
      "性能": 3881,
      "提款": 3882,
      "是如何": 3883,
      "民眾": 3884,
      "用來": 3885,
      "的是": 3886,
      "的生活": 3887,
      "的口感": 3888,
      "皮革": 3889,
      "相機": 3890,
      "紅包": 3891,
      "被稱為": 3892,
      "要求": 3893,
      "規格": 3894,
      "記錄": 3895,
      "資料": 3896,
      "達到": 3897,
      "防水": 3898,
      "雖然現在有": 3899,
      "藍牙耳": 3900,
      "大腸包小腸": 3901,
      "提款卡": 3902,
      "PE": 3903,
      "來源": 3904,
      "信封": 3905,
      "元宵": 3906,
      "取得": 3907,
      "品味": 3908,
      "商業": 3909,
      "形象": 3910,
      "應用於": 3911,
      "成為了": 3912,
      "攝影": 3913,
      "整合": 3914,
      "是否": 3915,
      "澳洲": 3916,
      "狀況": 3917,
      "競爭": 3918,
      "節的": 3919,
      "約為": 3920,
      "駕駛": 3921,
      "許多人": 3922,
      "推薦大家": 3923,
      "101": 3924,
      "台北101": 3925,
      "工業革命": 3926,
      "HDD": 3927,
      "感光元件": 3928,
      "倉鼠": 3929,
      "垃圾": 3930,
      "彩色": 3931,
      "掃地": 3932,
      "是最": 3933,
      "橡皮": 3934,
      "百到": 3935,
      "票價": 3936,
      "繁多": 3937,
      "而生": 3938,
      "膠帶": 3939,
      "茶几": 3940,
      "輕薄": 3941,
      "銀行": 3942,
      "它們的": 3943,
      "Pad": 3944,
      "EPA": 3945,
      "橡皮擦": 3946,
      "2000": 3947,
      "iPad": 3948,
      "也讓": 3949,
      "依照": 3950,
      "元素": 3951,
      "刀片": 3952,
      "印表": 3953,
      "可愛": 3954,
      "回收": 3955,
      "太空": 3956,
      "微波": 3957,
      "成功": 3958,
      "會有": 3959,
      "有何": 3960,
      "服務": 3961,
      "模仿": 3962,
      "正式": 3963,
      "注重": 3964,
      "潮流": 3965,
      "牛仔": 3966,
      "畫素": 3967,
      "白色": 3968,
      "的產品": 3969,
      "祖先": 3970,
      "程度": 3971,
      "紙巾": 3972,
      "金魚": 3973,
      "風景": 3974,
      "飼養": 3975,
      "香味": 3976,
      "龐大": 3977,
      "主要以": 3978,
      "除濕機": 3979,
      "辦公室": 3980,
      "掃地機器": 3981,
      "HEPA": 3982,
      "之外": 3983,
      "儘管": 3984,
      "光線": 3985,
      "動力": 3986,
      "北極": 3987,
      "同時": 3988,
      "國際": 3989,
      "安心": 3990,
      "就像": 3991,
      "層次": 3992,
      "幫助": 3993,
      "方形": 3994,
      "春聯": 3995,
      "板塊": 3996,
      "概念": 3997,
      "毛巾": 3998,
      "的象徵": 3999,
      "積極": 4000,
      "竹葉": 4001,
      "經歷": 4002,
      "能量": 4003,
      "蠟燭": 4004,
      "開啟": 4005,
      "設計的": 4006,
      "提供了": 4007,
      "文化中": 4008,
      "讓人感到": 4009,
      "看到的": 4010,
      "創造出": 4011,
      "低廉": 4012,
      "元左右": 4013,
      "印刷": 4014,
      "外皮": 4015,
      "太魯": 4016,
      "建築": 4017,
      "意識": 4018,
      "手工": 4019,
      "投資": 4020,
      "標準": 4021,
      "歐洲": 4022,
      "氣炸": 4023,
      "清淨": 4024,
      "湯頭": 4025,
      "煙火": 4026,
      "牙膏": 4027,
      "筆的": 4028,
      "羊絨": 4029,
      "美麗": 4030,
      "趨勢": 4031,
      "輕便": 4032,
      "過濾": 4033,
      "郵票": 4034,
      "風鈴": 4035,
      "飲料": 4036,
      "首選": 4037,
      "高階": 4038,
      "高品質": 4039,
      "技術發展": 4040,
      "特殊的": 4041,
      "數百萬": 4042,
      "博物院": 4043,
      "太魯閣": 4044,
      "70": 4045,
      "te": 4046,
      "」?": 4047,
      "兔子": 4048,
      "回憶": 4049,
      "學習": 4050,
      "很有": 4051,
      "日出": 4052,
      "海豚": 4053,
      "混合": 4054,
      "濕紙巾": 4055,
      "熊貓": 4056,
      "登山": 4057,
      "的代表": 4058,
      "精緻": 4059,
      "約莫": 4060,
      "約新台幣": 4061,
      "能夠": 4062,
      "至今": 4063,
      "觀賞": 4064,
      "遊客": 4065,
      "面紙": 4066,
      "個人認為": 4067,
      "筆記本": 4068,
      "吸引了": 4069,
      "約落在新台幣": 4070,
      "智慧型手機": 4071,
      "牛仔褲": 4072,
      "氣炸鍋": 4073,
      "on": 4074,
      "仍有": 4075,
      "保暖": 4076,
      "力量": 4077,
      "原子": 4078,
      "和服": 4079,
      "實在": 4080,
      "情況": 4081,
      "成了": 4082,
      "時尚": 4083,
      "最佳": 4084,
      "望遠": 4085,
      "棲息": 4086,
      "檯燈": 4087,
      "沙發": 4088,
      "活性": 4089,
      "烏龜": 4090,
      "無線": 4091,
      "牙齒": 4092,
      "的原因": 4093,
      "目的": 4094,
      "真正": 4095,
      "穿著": 4096,
      "缺乏": 4097,
      "老虎": 4098,
      "背包": 4099,
      "脖子": 4100,
      "讓它": 4101,
      "關係": 4102,
      "香料": 4103,
      "成本較高": 4104,
      "開始嘗試": 4105,
      "出現了": 4106,
      "越來越多": 4107,
      "複雜的": 4108,
      "60年代": 4109,
      "科學家": 4110,
      "故宮博物院": 4111,
      "信用卡": 4112,
      "元宵節": 4113,
      "1500": 4114,
      "oo": 4115,
      "不會": 4116,
      "享受": 4117,
      "來的": 4118,
      "內餡": 4119,
      "其中": 4120,
      "化妝台": 4121,
      "千到": 4122,
      "印章": 4123,
      "厚重": 4124,
      "合金": 4125,
      "團圓": 4126,
      "城市": 4127,
      "婚紗": 4128,
      "布料": 4129,
      "手套": 4130,
      "方案": 4131,
      "普渡": 4132,
      "更好": 4133,
      "會這麼": 4134,
      "某些": 4135,
      "準備": 4136,
      "直到": 4137,
      "移動": 4138,
      "節慶": 4139,
      "紙箱": 4140,
      "細節": 4141,
      "總能": 4142,
      "總體": 4143,
      "美的": 4144,
      "興起": 4145,
      "變遷": 4146,
      "輔助": 4147,
      "酥脆": 4148,
      "電視": 4149,
      "香腸": 4150,
      "雖然有些": 4151,
      "許多品牌": 4152,
      "實用性": 4153,
      "風格的": 4154,
      "空氣清淨": 4155,
      "結合了": 4156,
      "糯米腸": 4157,
      "絕對值得一": 4158,
      "太魯閣峽谷": 4159,
      "ar": 4160,
      "to": 4161,
      "一顆": 4162,
      "不少": 4163,
      "乾燥": 4164,
      "但現在": 4165,
      "保留": 4166,
      "分解": 4167,
      "包裹": 4168,
      "原本": 4169,
      "原理": 4170,
      "尼龍": 4171,
      "年輕": 4172,
      "微鏡": 4173,
      "應運": 4174,
      "投入": 4175,
      "推動": 4176,
      "放鬆": 4177,
      "料理": 4178,
      "早在": 4179,
      "更好的": 4180,
      "替代": 4181,
      "最終": 4182,
      "比例": 4183,
      "注意": 4184,
      "溫馨": 4185,
      "皮膚": 4186,
      "磁扣": 4187,
      "簡潔": 4188,
      "老街": 4189,
      "衣物": 4190,
      "被廣泛": 4191,
      "較大": 4192,
      "輕鬆": 4193,
      "通勤": 4194,
      "長頸": 4195,
      "面積": 4196,
      "顯微鏡": 4197,
      "價格從": 4198,
      "數百元不等": 4199,
      "穩定性": 4200,
      "尤其在": 4201,
      "國家公園": 4202,
      "望遠鏡": 4203,
      "長頸鹿": 4204,
      "12": 4205,
      "OS": 4206,
      "」。": 4207,
      "一份": 4208,
      "一台": 4209,
      "不錯": 4210,
      "世界": 4211,
      "位置": 4212,
      "傳輸": 4213,
      "優點": 4214,
      "光圈": 4215,
      "到了": 4216,
      "厚的": 4217,
      "各樣的": 4218,
      "小時": 4219,
      "很高": 4220,
      "戰後": 4221,
      "景觀": 4222,
      "服飾": 4223,
      "的工具": 4224,
      "的故事": 4225,
      "等功能": 4226,
      "紅色": 4227,
      "蘋果": 4228,
      "輕巧": 4229,
      "透氣": 4230,
      "配方": 4231,
      "防止": 4232,
      "雨傘": 4233,
      "鞋櫃": 4234,
      "食用": 4235,
      "鬃毛": 4236,
      "鸚鵡": 4237,
      "價格通常": 4238,
      "台灣欒樹": 4239,
      "象徵著": 4240,
      "特別是": 4241,
      "19世紀末": 4242,
      "為什麼現代的": 4243,
      "郵輪旅行": 4244,
      "掃描器": 4245,
      "應運而生": 4246,
      "120": 4247,
      "40": 4248,
      "800": 4249,
      "gle": 4250,
      "乾淨": 4251,
      "估計": 4252,
      "作業": 4253,
      "來看": 4254,
      "元以上": 4255,
      "反映": 4256,
      "台南": 4257,
      "各式": 4258,
      "商品": 4259,
      "土鳳梨": 4260,
      "增添": 4261,
      "墨水": 4262,
      "大象": 4263,
      "寶特": 4264,
      "小型": 4265,
      "幫手": 4266,
      "很快": 4267,
      "悠遊": 4268,
      "情感": 4269,
      "探索": 4270,
      "旗袍": 4271,
      "替換": 4272,
      "水分": 4273,
      "湯圓": 4274,
      "無尾": 4275,
      "物質": 4276,
      "的出現": 4277,
      "的形狀": 4278,
      "的機種": 4279,
      "的味道": 4280,
      "的感覺": 4281,
      "眼睛": 4282,
      "程式": 4283,
      "等級": 4284,
      "而成": 4285,
      "臺灣": 4286,
      "被視為": 4287,
      "觸感": 4288,
      "越高": 4289,
      "連接": 4290,
      "醫療": 4291,
      "金額": 4292,
      "釘書": 4293,
      "電鍋": 4294,
      "飛機": 4295,
      "體現": 4296,
      "鳥類": 4297,
      "黑色": 4298,
      "價格親民": 4299,
      "價格方面": 4300,
      "成本相對": 4301,
      "人們開始": 4302,
      "材質的": 4303,
      "落在新台幣": 4304,
      "耐用性": 4305,
      "入門級": 4306,
      "的地方": 4307,
      "寶特瓶": 4308,
      "ch": 4309,
      "一直": 4310,
      "但為了": 4311,
      "依賴": 4312,
      "列車": 4313,
      "創意": 4314,
      "壽命": 4315,
      "實木": 4316,
      "寵物": 4317,
      "居家": 4318,
      "廚房": 4319,
      "強度": 4320,
      "彎曲": 4321,
      "才開始": 4322,
      "指標": 4323,
      "明顯": 4324,
      "易於": 4325,
      "時候": 4326,
      "更具": 4327,
      "更方便": 4328,
      "會選擇": 4329,
      "木材": 4330,
      "棉被": 4331,
      "水彩": 4332,
      "流明": 4333,
      "準確": 4334,
      "竹子": 4335,
      "組合": 4336,
      "背後": 4337,
      "規模": 4338,
      "變頻": 4339,
      "這項": 4340,
      "都會": 4341,
      "配料": 4342,
      "雕刻": 4343,
      "風險": 4344,
      "主要功能": 4345,
      "但是隨著": 4346,
      "1960年代": 4347,
      "不僅能": 4348,
      "適合自己的": 4349,
      "舒適度": 4350,
      "降低了": 4351,
      "溫度計": 4352,
      "記憶棉": 4353,
      "垃圾袋": 4354,
      "無尾熊": 4355,
      "15": 4356,
      "90": 4357,
      "Goo": 4358,
      "不足": 4359,
      "人體": 4360,
      "優雅": 4361,
      "冷凍": 4362,
      "只能": 4363,
      "各地": 4364,
      "單一": 4365,
      "大部分": 4366,
      "家人": 4367,
      "尋找": 4368,
      "市售": 4369,
      "效益": 4370,
      "散熱": 4371,
      "數萬元不等": 4372,
      "木薯": 4373,
      "棉花": 4374,
      "機型": 4375,
      "沐浴": 4376,
      "油脂": 4377,
      "活力": 4378,
      "湯圓的": 4379,
      "溫和": 4380,
      "溫暖": 4381,
      "燈塔": 4382,
      "猴子": 4383,
      "的功能": 4384,
      "的影響": 4385,
      "的製作": 4386,
      "看起來": 4387,
      "祭祀": 4388,
      "而非": 4389,
      "蔬菜": 4390,
      "血壓": 4391,
      "西裝": 4392,
      "辨識": 4393,
      "近年": 4394,
      "長度": 4395,
      "長的": 4396,
      "震撼": 4397,
      "領域": 4398,
      "體型": 4399,
      "雖然最初": 4400,
      "主要是": 4401,
      "生活中": 4402,
      "其實是": 4403,
      "差異很大": 4404,
      "塑膠袋": 4405,
      "價格從幾百到": 4406,
      "發明的": 4407,
      "交通工具": 4408,
      "冷氣機": 4409,
      "延長線": 4410,
      "有所差異": 4411,
      "體重計": 4412,
      "洗衣精": 4413,
      "聖誕樹": 4414,
      "開啟了": 4415,
      "悠遊卡": 4416,
      "in": 4417,
      "一起": 4418,
      "上萬元不等": 4419,
      "中元": 4420,
      "人工": 4421,
      "仍是": 4422,
      "企鵝": 4423,
      "信片": 4424,
      "像素": 4425,
      "價位": 4426,
      "刮鬍": 4427,
      "去除": 4428,
      "合作": 4429,
      "外殼": 4430,
      "居住": 4431,
      "平台": 4432,
      "懷舊": 4433,
      "搭乘": 4434,
      "斑馬": 4435,
      "新鮮": 4436,
      "方法": 4437,
      "明信片": 4438,
      "是很": 4439,
      "有趣": 4440,
      "服裝": 4441,
      "模式": 4442,
      "汽車": 4443,
      "清朝": 4444,
      "演進": 4445,
      "牙刷": 4446,
      "療癒": 4447,
      "的小": 4448,
      "的款式": 4449,
      "睡眠": 4450,
      "研發": 4451,
      "簡約": 4452,
      "總是": 4453,
      "花紋": 4454,
      "蓬鬆": 4455,
      "衛星": 4456,
      "衣櫃": 4457,
      "規劃": 4458,
      "觸控": 4459,
      "豬肉": 4460,
      "這也": 4461,
      "這是": 4462,
      "連結": 4463,
      "重視": 4464,
      "鋁罐": 4465,
      "關注": 4466,
      "食品": 4467,
      "飲食": 4468,
      "餡料": 4469,
      "高達": 4470,
      "鯊魚": 4471,
      "因為人們": 4472,
      "我個人覺得選擇": 4473,
      "成本也": 4474,
      "傳統上": 4475,
      "非常實用": 4476,
      "成為主流": 4477,
      "如果你": 4478,
      "台北捷運": 4479,
      "的歷史可以追溯到": 4480,
      "扮演了": 4481,
      "烘焙紙": 4482,
      "北極熊": 4483,
      "棲息地": 4484,
      "各式各樣的": 4485,
      "Google": 4486,
      "傳承": 4487,
      "切割": 4488,
      "區域": 4489,
      "吸水": 4490,
      "噪音": 4491,
      "在地": 4492,
      "均勻": 4493,
      "床墊": 4494,
      "形眼鏡": 4495,
      "影片": 4496,
      "必須": 4497,
      "更大的": 4498,
      "核心": 4499,
      "洗髮": 4500,
      "清洗": 4501,
      "測量": 4502,
      "營養": 4503,
      "物種": 4504,
      "生命": 4505,
      "用品": 4506,
      "異味": 4507,
      "的普及": 4508,
      "的食物": 4509,
      "等因素": 4510,
      "箔紙": 4511,
      "粗糙": 4512,
      "紋針": 4513,
      "自由": 4514,
      "興建": 4515,
      "融入": 4516,
      "蠟筆": 4517,
      "表面": 4518,
      "距離": 4519,
      "軟碟": 4520,
      "迴紋針": 4521,
      "運用": 4522,
      "鈴鐺": 4523,
      "隱形眼鏡": 4524,
      "雄獅": 4525,
      "風靡": 4526,
      "什麼樣的": 4527,
      "方便攜帶": 4528,
      "文化的": 4529,
      "值得一": 4530,
      "我們現在": 4531,
      "真的很": 4532,
      "80年代": 4533,
      "的發展歷程中": 4534,
      "種類繁多": 4535,
      "的一部分": 4536,
      "電動車": 4537,
      "南瓜燈": 4538,
      "印表機": 4539,
      "血壓計": 4540,
      "la": 4541,
      "一下": 4542,
      "不能": 4543,
      "不只是": 4544,
      "但其": 4545,
      "偶爾": 4546,
      "兼顧": 4547,
      "分布": 4548,
      "包括": 4549,
      "反而": 4550,
      "合成": 4551,
      "含有": 4552,
      "商店": 4553,
      "圍巾": 4554,
      "完善": 4555,
      "室內": 4556,
      "工程": 4557,
      "巨大的": 4558,
      "建設": 4559,
      "心情": 4560,
      "才逐漸": 4561,
      "接受": 4562,
      "接觸": 4563,
      "支援": 4564,
      "效能": 4565,
      "景色": 4566,
      "有了": 4567,
      "棒球": 4568,
      "氣候": 4569,
      "的傳統": 4570,
      "的特殊": 4571,
      "的流行": 4572,
      "米飯": 4573,
      "細菌": 4574,
      "自身": 4575,
      "調味": 4576,
      "還有": 4577,
      "電力": 4578,
      "韓服": 4579,
      "類似": 4580,
      "價格高昂": 4581,
      "為什麼現在市面上": 4582,
      "當時人們": 4583,
      "發展歷程中": 4584,
      "非常方便": 4585,
      "提升了": 4586,
      "代表性的": 4587,
      "有些店家": 4588,
      "從幾十元到": 4589,
      "這麼多": 4590,
      "家用血壓計": 4591,
      "自然的": 4592,
      "滿足不同": 4593,
      "依然是": 4594,
      "阿里山的": 4595,
      "的人來說": 4596,
      "記憶體": 4597,
      "我個人推薦選擇": 4598,
      "九份老街": 4599,
      "保鮮膜": 4600,
      "HEPA濾網": 4601,
      "元宵節吃": 4602,
      "電視櫃": 4603,
      "作業系統": 4604,
      "洗髮精": 4605,
      "1000": 4606,
      "便攜": 4607,
      "保濕": 4608,
      "做法": 4609,
      "分離": 4610,
      "喜愛": 4611,
      "噴墨": 4612,
      "基酸": 4613,
      "大多": 4614,
      "建立": 4615,
      "式的": 4616,
      "往往": 4617,
      "必備": 4618,
      "恐龍": 4619,
      "慶祝": 4620,
      "搭載": 4621,
      "數字": 4622,
      "木製": 4623,
      "樂趣": 4624,
      "標示": 4625,
      "決定": 4626,
      "洗碗": 4627,
      "深入": 4628,
      "目標": 4629,
      "眾多": 4630,
      "禁城": 4631,
      "端午": 4632,
      "粉圓": 4633,
      "紡織": 4634,
      "紫禁城": 4635,
      "累積": 4636,
      "縮短": 4637,
      "計畫": 4638,
      "資訊": 4639,
      "質的": 4640,
      "起初": 4641,
      "這類": 4642,
      "運作": 4643,
      "醬汁": 4644,
      "鉛筆": 4645,
      "鋁箔紙": 4646,
      "高溫": 4647,
      "高端": 4648,
      "黃色": 4649,
      "雖然當時": 4650,
      "台灣高鐵": 4651,
      "技術限制": 4652,
      "成本高昂": 4653,
      "成為一種": 4654,
      "牠們在": 4655,
      "最初是為了": 4656,
      "生活品質": 4657,
      "應用程式": 4658,
      "改變了": 4659,
      "上百元不等": 4660,
      "反映了": 4661,
      "洗碗精": 4662,
      "at": 4663,
      "il": 4664,
      "並不": 4665,
      "之處": 4666,
      "來自於": 4667,
      "傾斜": 4668,
      "其獨特的": 4669,
      "判斷": 4670,
      "化學": 4671,
      "各自": 4672,
      "大約在": 4673,
      "天氣": 4674,
      "對環境": 4675,
      "展示": 4676,
      "平民": 4677,
      "幸福": 4678,
      "度的": 4679,
      "強大的": 4680,
      "彈性": 4681,
      "我自己": 4682,
      "手機的": 4683,
      "挑選": 4684,
      "捕捉": 4685,
      "收藏": 4686,
      "敏感": 4687,
      "整理": 4688,
      "旋轉": 4689,
      "是因為它": 4690,
      "普通": 4691,
      "晶片": 4692,
      "更有效": 4693,
      "有機會": 4694,
      "木頭": 4695,
      "條件": 4696,
      "海洋": 4697,
      "烹調": 4698,
      "用的": 4699,
      "相較": 4700,
      "硬體": 4701,
      "笨重": 4702,
      "第一": 4703,
      "行為": 4704,
      "被認為": 4705,
      "身體": 4706,
      "針對": 4707,
      "雲海": 4708,
      "因為在": 4709,
      "設計成": 4710,
      "為了方便": 4711,
      "為了提升": 4712,
      "一般而言": 4713,
      "價格也因": 4714,
      "價格也相對": 4715,
      "價格也相對親民": 4716,
      "舒適的": 4717,
      "重要的是": 4718,
      "不斷改良": 4719,
      "發明了": 4720,
      "更高的": 4721,
      "古代的": 4722,
      "演化出": 4723,
      "Apple": 4724,
      "衛生紙": 4725,
      "鮮豔的": 4726,
      "微波爐": 4727,
      "GB": 4728,
      "iOS": 4729,
      "re": 4730,
      "不如": 4731,
      "且容易": 4732,
      "乘客": 4733,
      "也比較": 4734,
      "以前": 4735,
      "佔據": 4736,
      "依據": 4737,
      "兼具": 4738,
      "分享": 4739,
      "區分": 4740,
      "印象": 4741,
      "反應": 4742,
      "只要": 4743,
      "吉祥": 4744,
      "名稱": 4745,
      "周邊": 4746,
      "國民": 4747,
      "地方": 4748,
      "場所": 4749,
      "壓縮": 4750,
      "女性": 4751,
      "定位": 4752,
      "年的": 4753,
      "得以": 4754,
      "循環": 4755,
      "愉悅": 4756,
      "我建議": 4757,
      "提醒": 4758,
      "支撐": 4759,
      "昆蟲": 4760,
      "春節": 4761,
      "更佳": 4762,
      "朋友": 4763,
      "期限": 4764,
      "每次": 4765,
      "氨基酸": 4766,
      "水中": 4767,
      "消耗": 4768,
      "清晰": 4769,
      "熱帶": 4770,
      "的材質": 4771,
      "的容量": 4772,
      "綠色": 4773,
      "背景": 4774,
      "色素": 4775,
      "英國": 4776,
      "覆蓋": 4777,
      "角度": 4778,
      "讓使用者": 4779,
      "選購": 4780,
      "還能": 4781,
      "電量": 4782,
      "震動": 4783,
      "靈活": 4784,
      "高速": 4785,
      "麵粉": 4786,
      "設計師": 4787,
      "成本較低": 4788,
      "功能的": 4789,
      "代表了": 4790,
      "雖然現在的": 4791,
      "因為早期的": 4792,
      "多樣性": 4793,
      "讓人感受到": 4794,
      "加入了": 4795,
      "如此受歡迎": 4796,
      "仍然是": 4797,
      "多元化": 4798,
      "多樣化的": 4799,
      "觀察到": 4800,
      "自動駕駛": 4801,
      "符合自己": 4802,
      "單純的": 4803,
      "20世紀初": 4804,
      "太陽眼鏡": 4805,
      "經歷了": 4806,
      "羊絨圍巾": 4807,
      "高品質的": 4808,
      "原子筆": 4809,
      "絕對值得一試": 4810,
      "端午節": 4811,
      "相較於": 4812,
      "16": 4813,
      "600": 4814,
      "一碗": 4815,
      "不佳": 4816,
      "不鏽": 4817,
      "之後": 4818,
      "乙烯": 4819,
      "也較": 4820,
      "亮度": 4821,
      "以上的": 4822,
      "但若": 4823,
      "供品": 4824,
      "僅是": 4825,
      "元都有": 4826,
      "十分": 4827,
      "吹風": 4828,
      "商家": 4829,
      "團聚": 4830,
      "在現代": 4831,
      "地質": 4832,
      "基因": 4833,
      "壯麗": 4834,
      "完整": 4835,
      "完美": 4836,
      "客運": 4837,
      "密的": 4838,
      "干擾": 4839,
      "建造": 4840,
      "強烈": 4841,
      "形式": 4842,
      "後的": 4843,
      "應付": 4844,
      "應該": 4845,
      "技巧": 4846,
      "撞擊": 4847,
      "旗艦": 4848,
      "是現代": 4849,
      "最大的": 4850,
      "會影響": 4851,
      "會產生": 4852,
      "月亮": 4853,
      "枕頭": 4854,
      "每個": 4855,
      "毛髮": 4856,
      "深度": 4857,
      "燃料": 4858,
      "狗狗": 4859,
      "獨立": 4860,
      "現金": 4861,
      "生長": 4862,
      "的誕生": 4863,
      "的特性": 4864,
      "的回憶": 4865,
      "相信": 4866,
      "相機的": 4867,
      "看似": 4868,
      "祝福": 4869,
      "神木": 4870,
      "管理": 4871,
      "節省": 4872,
      "續航": 4873,
      "草原": 4874,
      "設施": 4875,
      "軟體": 4876,
      "進化": 4877,
      "過去": 4878,
      "酒精": 4879,
      "里程": 4880,
      "金融": 4881,
      "隨時": 4882,
      "電影": 4883,
      "頻率": 4884,
      "額外": 4885,
      "類動物": 4886,
      "黑糖": 4887,
      "所以它": 4888,
      "為什麼台灣": 4889,
      "主要的": 4890,
      "需要定期": 4891,
      "非常值得": 4892,
      "非常適合": 4893,
      "逐漸普及": 4894,
      "環境中": 4895,
      "價格也因此": 4896,
      "時期的": 4897,
      "一定的": 4898,
      "形成了": 4899,
      "廠商開始": 4900,
      "有哪些關鍵": 4901,
      "上千元不等": 4902,
      "扮演著": 4903,
      "的好幫手": 4904,
      "藍牙耳機的": 4905,
      "掃地機器人": 4906,
      "雖然有些人": 4907,
      "沐浴乳": 4908,
      "不鏽鋼": 4909,
      "GH": 4910,
      "Ki": 4911,
      "hi": 4912,
      "一隻": 4913,
      "中葉": 4914,
      "二戰後": 4915,
      "休閒": 4916,
      "但仍": 4917,
      "但這種": 4918,
      "來自": 4919,
      "依舊": 4920,
      "保有": 4921,
      "個性": 4922,
      "免洗": 4923,
      "冬眠": 4924,
      "列印": 4925,
      "則更": 4926,
      "原始": 4927,
      "各有": 4928,
      "品嚐": 4929,
      "地震": 4930,
      "埃及": 4931,
      "大自然的": 4932,
      "導入": 4933,
      "小巧": 4934,
      "尚未": 4935,
      "屬於": 4936,
      "年夜": 4937,
      "影像": 4938,
      "悠瑪": 4939,
      "我推薦大家": 4940,
      "投影": 4941,
      "損壞": 4942,
      "文物": 4943,
      "新年": 4944,
      "普悠瑪": 4945,
      "最早期的": 4946,
      "未來": 4947,
      "極高": 4948,
      "樹葉": 4949,
      "源自": 4950,
      "爭議": 4951,
      "物品": 4952,
      "發出": 4953,
      "的獨特": 4954,
      "的進步": 4955,
      "移民": 4956,
      "符號": 4957,
      "系列": 4958,
      "約有": 4959,
      "統計": 4960,
      "美工": 4961,
      "肉類": 4962,
      "能感受到": 4963,
      "表演": 4964,
      "製程": 4965,
      "豆沙": 4966,
      "貓咪": 4967,
      "賦予": 4968,
      "進口": 4969,
      "配備": 4970,
      "配色": 4971,
      "鋁合金": 4972,
      "鑾鼻": 4973,
      "防護": 4974,
      "非洲": 4975,
      "頻繁": 4976,
      "馬達": 4977,
      "鵝鑾鼻": 4978,
      "技術不": 4979,
      "技術有限": 4980,
      "成本降低": 4981,
      "通常會": 4982,
      "許多店家": 4983,
      "逐漸演變成": 4984,
      "採用了": 4985,
      "增加了": 4986,
      "大量生產": 4987,
      "科技發展": 4988,
      "耐用的": 4989,
      "作為一種": 4990,
      "具有良好的": 4991,
      "保存期限": 4992,
      "更是一種": 4993,
      "ndle": 4994,
      "數千元不等": 4995,
      "處理器": 4996,
      "的美好": 4997,
      "的美食": 4998,
      "口味的": 4999,
      "阿里山森林": 5000,
      "視覺效果": 5001,
      "大眾運輸": 5002,
      "墾丁國家公園": 5003,
      "藍牙耳機": 5004,
      "有何不同": 5005,
      "活性劑": 5006,
      "總體而言": 5007,
      "空氣清淨機": 5008,
      "釘書機": 5009,
      "近年來": 5010,
      "元宵節吃湯圓的": 5011,
      "GHz": 5012,
      "Kindle": 5013,
      "免洗筷": 5014,
      "冬眠棉被": 5015,
      "普悠瑪號": 5016,
      "Ph": 5017,
      "ot": 5018,
      "us": 5019,
      "一張": 5020,
      "不多": 5021,
      "且能": 5022,
      "也因此": 5023,
      "五花": 5024,
      "但它的": 5025,
      "使其": 5026,
      "做成": 5027,
      "傳遞": 5028,
      "充電": 5029,
      "公共": 5030,
      "公分": 5031,
      "冷藏": 5032,
      "友善": 5033,
      "可靠": 5034,
      "吸收": 5035,
      "哺乳": 5036,
      "嚴重": 5037,
      "外酥": 5038,
      "家具": 5039,
      "實現": 5040,
      "工學": 5041,
      "常常": 5042,
      "平方": 5043,
      "怎麼": 5044,
      "抽屜": 5045,
      "擦拭": 5046,
      "日益": 5047,
      "時的": 5048,
      "會成為": 5049,
      "會添加": 5050,
      "棲地": 5051,
      "機翼": 5052,
      "橡膠": 5053,
      "海鮮": 5054,
      "減輕": 5055,
      "澱粉": 5056,
      "濕度": 5057,
      "烹飪": 5058,
      "珍貴": 5059,
      "現象": 5060,
      "瑞士": 5061,
      "瓦特": 5062,
      "界面": 5063,
      "的問題": 5064,
      "的主要": 5065,
      "的成本": 5066,
      "的條紋": 5067,
      "的概念": 5068,
      "監測": 5069,
      "祈求": 5070,
      "稀有": 5071,
      "節日": 5072,
      "簡化": 5073,
      "粽子的": 5074,
      "紀念": 5075,
      "者的": 5076,
      "而來": 5077,
      "而定": 5078,
      "行程": 5079,
      "西方": 5080,
      "解析": 5081,
      "轉向": 5082,
      "這樣的": 5083,
      "配戴": 5084,
      "重複": 5085,
      "金錢": 5086,
      "長輩": 5087,
      "陽光": 5088,
      "難忘": 5089,
      "頻寬": 5090,
      "香氛": 5091,
      "雖然當時的": 5092,
      "所以才": 5093,
      "現在許多": 5094,
      "現在我們": 5095,
      "為什麼這麼": 5096,
      "主要使用": 5097,
      "發展成": 5098,
      "可能要": 5099,
      "它們在": 5100,
      "價格也從幾": 5101,
      "產生的": 5102,
      "顏色的": 5103,
      "降低成本": 5104,
      "大量的": 5105,
      "價格從幾十元到": 5106,
      "價格從幾十到": 5107,
      "運動鞋": 5108,
      "入門款": 5109,
      "找到最": 5110,
      "18世紀": 5111,
      "呈現出": 5112,
      "尤其是在": 5113,
      "美麗的": 5114,
      "one": 5115,
      "水彩顏料": 5116,
      "主要功能是": 5117,
      "人體工學": 5118,
      "棒球帽": 5119,
      "年夜飯": 5120,
      "鵝鑾鼻燈塔": 5121,
      "元宵節吃湯圓的習俗": 5122,
      "外酥內": 5123,
      "17": 5124,
      "95": 5125,
      "Au": 5126,
      "el": 5127,
      "ir": 5128,
      "per": 5129,
      "也很": 5130,
      "也相對": 5131,
      "但因為": 5132,
      "便開始": 5133,
      "具代表性的": 5134,
      "到的": 5135,
      "前來": 5136,
      "化物": 5137,
      "即可": 5138,
      "哪裡": 5139,
      "堅固": 5140,
      "大約": 5141,
      "它與": 5142,
      "寓意": 5143,
      "實惠": 5144,
      "崛起": 5145,
      "工法": 5146,
      "巨大": 5147,
      "平價": 5148,
      "平衡": 5149,
      "年齡": 5150,
      "式設計": 5151,
      "改用": 5152,
      "放大": 5153,
      "新的": 5154,
      "更快": 5155,
      "更新": 5156,
      "木漿": 5157,
      "污染": 5158,
      "海冰": 5159,
      "海拔": 5160,
      "浸泡": 5161,
      "消化": 5162,
      "烤盤": 5163,
      "營運": 5164,
      "用戶": 5165,
      "疲勞": 5166,
      "百元到": 5167,
      "的基礎": 5168,
      "盛行": 5169,
      "省去": 5170,
      "石墨": 5171,
      "究竟": 5172,
      "細細": 5173,
      "羽毛": 5174,
      "羽絨": 5175,
      "聚乙烯": 5176,
      "肉圓的": 5177,
      "肥皂": 5178,
      "能提升": 5179,
      "花費": 5180,
      "裡的": 5181,
      "要考量": 5182,
      "設定": 5183,
      "變成": 5184,
      "讓你": 5185,
      "越大": 5186,
      "身份": 5187,
      "過敏": 5188,
      "限於": 5189,
      "體會": 5190,
      "高級": 5191,
      "鼓勵": 5192,
      "因為古代": 5193,
      "所以能": 5194,
      "價格上": 5195,
      "價格昂貴": 5196,
      "我個人非常": 5197,
      "當時是為了": 5198,
      "提供更": 5199,
      "可能性": 5200,
      "生活在": 5201,
      "材質和": 5202,
      "相對便宜": 5203,
      "甚至可以": 5204,
      "獨特的風味": 5205,
      "價格也會": 5206,
      "結構簡單": 5207,
      "家用掃描器": 5208,
      "更多人": 5209,
      "市場上": 5210,
      "只是簡單的": 5211,
      "數千元": 5212,
      "台北市": 5213,
      "的重要性": 5214,
      "充滿了": 5215,
      "蒸汽機的": 5216,
      "能提供更": 5217,
      "裝飾品": 5218,
      "解決了": 5219,
      "掃地機器人的": 5220,
      "彎曲的": 5221,
      "我們現在看到的": 5222,
      "atch": 5223,
      "美工刀": 5224,
      "Auto": 5225,
      "細細品味": 5226,
      "1200": 5227,
      "3年": 5228,
      "Air": 5229,
      "Watch": 5230,
      "en": 5231,
      "ob": 5232,
      "whi": 5233,
      "一年": 5234,
      "一款": 5235,
      "下的": 5236,
      "不一": 5237,
      "中世紀": 5238,
      "也相當": 5239,
      "乳膠": 5240,
      "交織": 5241,
      "人潮": 5242,
      "但這": 5243,
      "住民": 5244,
      "供應": 5245,
      "促進": 5246,
      "俯瞰": 5247,
      "元台幣": 5248,
      "內容": 5249,
      "刷毛": 5250,
      "刺激": 5251,
      "功率": 5252,
      "十足": 5253,
      "原住民": 5254,
      "各家": 5255,
      "名為": 5256,
      "品的": 5257,
      "因其": 5258,
      "困難": 5259,
      "在家": 5260,
      "地形": 5261,
      "多以": 5262,
      "多次": 5263,
      "奢華": 5264,
      "客製": 5265,
      "就會": 5266,
      "就已經": 5267,
      "工廠": 5268,
      "幾千": 5269,
      "度與": 5270,
      "很棒": 5271,
      "微笑": 5272,
      "微生物": 5273,
      "愛好": 5274,
      "感和": 5275,
      "感應": 5276,
      "應對": 5277,
      "所有": 5278,
      "手動": 5279,
      "打造": 5280,
      "數萬": 5281,
      "日記": 5282,
      "明的": 5283,
      "最高的": 5284,
      "最具代表性的": 5285,
      "極佳": 5286,
      "機身": 5287,
      "氣體": 5288,
      "深刻": 5289,
      "為食": 5290,
      "理論": 5291,
      "產量": 5292,
      "發生": 5293,
      "的體驗": 5294,
      "的關鍵": 5295,
      "的情況": 5296,
      "稍微": 5297,
      "窗型": 5298,
      "節能": 5299,
      "細緻": 5300,
      "結果": 5301,
      "線條": 5302,
      "緩慢": 5303,
      "聚集": 5304,
      "聞名": 5305,
      "萬聖": 5306,
      "著重": 5307,
      "蒸發": 5308,
      "蛋白": 5309,
      "行車": 5310,
      "襪子": 5311,
      "觀的": 5312,
      "講究": 5313,
      "越好": 5314,
      "軍事": 5315,
      "較小": 5316,
      "較少": 5317,
      "進入": 5318,
      "運轉": 5319,
      "過於": 5320,
      "那份": 5321,
      "那麼": 5322,
      "醬油": 5323,
      "重新": 5324,
      "野生": 5325,
      "鋼鐵": 5326,
      "長約": 5327,
      "雞蛋": 5328,
      "面臨": 5329,
      "體燃料": 5330,
      "雖然隨著": 5331,
      "雖然其他": 5332,
      "因為這些": 5333,
      "個人覺得": 5334,
      "台灣經濟": 5335,
      "我個人比較": 5336,
      "可以有效": 5337,
      "通常採用": 5338,
      "成為台灣的": 5339,
      "環境的": 5340,
      "提供的": 5341,
      "之間的": 5342,
      "1980年代": 5343,
      "產生了": 5344,
      "數千不等": 5345,
      "追求更": 5346,
      "日本人": 5347,
      "製造商": 5348,
      "Paper": 5349,
      "令人驚": 5350,
      "製成的": 5351,
      "數十萬": 5352,
      "洗衣機": 5353,
      "不可或缺的": 5354,
      "智慧型手機的": 5355,
      "可愛的": 5356,
      "實在太": 5357,
      "太魯閣峽谷的": 5358,
      "保留了": 5359,
      "不錯的選擇": 5360,
      "刮鬍刀": 5361,
      "分離式": 5362,
      "阿里山森林鐵路": 5363,
      "Phone": 5364,
      "五花肉": 5365,
      "哺乳動物": 5366,
      "white": 5367,
      "Paperwhite": 5368,
      "ED": 5369,
      "LED": 5370,
      "an": 5371,
      "ax": 5372,
      "iPhone": 5373,
      "pil": 5374,
      "一杯": 5375,
      "不妨": 5376,
      "並且": 5377,
      "並不是": 5378,
      "也開始": 5379,
      "人心": 5380,
      "但現代": 5381,
      "但由於": 5382,
      "但實際": 5383,
      "保養": 5384,
      "偏好": 5385,
      "先進": 5386,
      "分散": 5387,
      "則是": 5388,
      "則有": 5389,
      "加速": 5390,
      "原料": 5391,
      "原生": 5392,
      "叫聲": 5393,
      "吃到": 5394,
      "喜好": 5395,
      "在台灣的": 5396,
      "在哪裡": 5397,
      "型號": 5398,
      "大樓": 5399,
      "存款": 5400,
      "它能": 5401,
      "幾十": 5402,
      "引發": 5403,
      "必要": 5404,
      "必需": 5405,
      "性與": 5406,
      "成像": 5407,
      "成年": 5408,
      "拍照": 5409,
      "捕食": 5410,
      "支持": 5411,
      "是重要的": 5412,
      "時會": 5413,
      "景象": 5414,
      "最高": 5415,
      "會將": 5416,
      "染料": 5417,
      "業者": 5418,
      "機能": 5419,
      "歷經": 5420,
      "比起": 5421,
      "溝通": 5422,
      "滅絕": 5423,
      "滋生": 5424,
      "火車": 5425,
      "熟悉": 5426,
      "燃燒": 5427,
      "營造": 5428,
      "狩獵": 5429,
      "瓦楞": 5430,
      "甜味": 5431,
      "當地": 5432,
      "發行": 5433,
      "發達": 5434,
      "的山": 5435,
      "的色彩": 5436,
      "的魅力": 5437,
      "的便利性": 5438,
      "穿梭": 5439,
      "精準": 5440,
      "美景": 5441,
      "脂肪": 5442,
      "至少": 5443,
      "興盛": 5444,
      "要從": 5445,
      "認證": 5446,
      "豐收": 5447,
      "販售": 5448,
      "軌道": 5449,
      "輕量": 5450,
      "這使得": 5451,
      "遊戲": 5452,
      "遮陽": 5453,
      "選項": 5454,
      "配件": 5455,
      "酸甜": 5456,
      "重點": 5457,
      "鏡頭": 5458,
      "長方形": 5459,
      "門票": 5460,
      "雛形": 5461,
      "雞肉": 5462,
      "領先": 5463,
      "頭皮": 5464,
      "類型": 5465,
      "顯著": 5466,
      "餐廳": 5467,
      "體的": 5468,
      "點心": 5469,
      "龐大的": 5470,
      "雖然有": 5471,
      "因為牠們": 5472,
      "因為這種": 5473,
      "價格範圍": 5474,
      "現在常見的": 5475,
      "技術不斷": 5476,
      "不同材質": 5477,
      "通常以": 5478,
      "代表性": 5479,
      "甚至有": 5480,
      "因為當時人們": 5481,
      "品牌和": 5482,
      "適合自己": 5483,
      "空間站": 5484,
      "為什麼會這麼": 5485,
      "時代變遷": 5486,
      "建議選擇": 5487,
      "整體來說": 5488,
      "為何會": 5489,
      "價格從幾千到": 5490,
      "地區的": 5491,
      "日本的": 5492,
      "製造成本": 5493,
      "電子體重計": 5494,
      "經濟實惠": 5495,
      "體積龐大": 5496,
      "玉山的": 5497,
      "透明膠帶": 5498,
      "彩色筆": 5499,
      "老虎的": 5500,
      "扮演了什麼樣的": 5501,
      "風靡全球": 5502,
      "烹調方式": 5503,
      "被認為是": 5504,
      "壓縮機": 5505,
      "界面活性劑": 5506,
      "Autopil": 5507,
      "必需品": 5508,
      "Autopilot": 5509,
      "%,": 5510,
      "4年": 5511,
      "400": 5512,
      "99": 5513,
      "Fi": 5514,
      "IP": 5515,
      "M2": 5516,
      "PM2": 5517,
      "Wi": 5518,
      "不便": 5519,
      "不容易": 5520,
      "中心": 5521,
      "也代表著": 5522,
      "但後來": 5523,
      "信號": 5524,
      "做出": 5525,
      "傳播": 5526,
      "元的": 5527,
      "分類": 5528,
      "利率": 5529,
      "危險": 5530,
      "厚度": 5531,
      "參考": 5532,
      "參觀": 5533,
      "可觀": 5534,
      "各國": 5535,
      "含量": 5536,
      "嚴格": 5537,
      "回味": 5538,
      "困擾": 5539,
      "固態": 5540,
      "圖像": 5541,
      "在一起": 5542,
      "地標": 5543,
      "地球": 5544,
      "塑形": 5545,
      "外型": 5546,
      "天文": 5547,
      "好運": 5548,
      "安裝": 5549,
      "容器": 5550,
      "寒冷": 5551,
      "實驗": 5552,
      "導航": 5553,
      "強化": 5554,
      "很重要": 5555,
      "性高": 5556,
      "意外": 5557,
      "意涵": 5558,
      "承受": 5559,
      "抬頭": 5560,
      "掌握": 5561,
      "掠食": 5562,
      "摩擦": 5563,
      "擺放": 5564,
      "數萬元": 5565,
      "文書": 5566,
      "明珠": 5567,
      "更有": 5568,
      "會被稱為": 5569,
      "有著": 5570,
      "機制": 5571,
      "每天": 5572,
      "氣氛": 5573,
      "水平": 5574,
      "清脆": 5575,
      "測器": 5576,
      "滋味": 5577,
      "滿的": 5578,
      "潮濕": 5579,
      "熱騰": 5580,
      "爭奪": 5581,
      "獲得": 5582,
      "理解": 5583,
      "申請": 5584,
      "的安全": 5585,
      "的演變": 5586,
      "的能力": 5587,
      "的氛圍": 5588,
      "相同": 5589,
      "省下": 5590,
      "礦工": 5591,
      "祭拜": 5592,
      "突破": 5593,
      "紅燒": 5594,
      "經驗": 5595,
      "縮小": 5596,
      "羊毛": 5597,
      "而有所差異": 5598,
      "萬年前": 5599,
      "薄荷": 5600,
      "融合": 5601,
      "製的": 5602,
      "觀景": 5603,
      "讓我們": 5604,
      "買到": 5605,
      "質地": 5606,
      "起跳": 5607,
      "輕盈": 5608,
      "追蹤": 5609,
      "這也是": 5610,
      "那樣": 5611,
      "雷射": 5612,
      "鼻子": 5613,
      "雖然這": 5614,
      "因為它們": 5615,
      "價格相對親民": 5616,
      "為什麼台灣的": 5617,
      "為什麼一定要": 5618,
      "當時是": 5619,
      "通常由": 5620,
      "需要大量": 5621,
      "提升整體": 5622,
      "容易腐": 5623,
      "可能落在": 5624,
      "甚至能": 5625,
      "歷史上": 5626,
      "清潔力": 5627,
      "擁有一": 5628,
      "實用的": 5629,
      "能有效降低": 5630,
      "家庭的": 5631,
      "帶來了": 5632,
      "為何能": 5633,
      "健康的": 5634,
      "工業發展": 5635,
      "19世紀中葉": 5636,
      "的起源可以追溯到1960年代": 5637,
      "展現了": 5638,
      "有所不同": 5639,
      "保育工作": 5640,
      "的使用體驗": 5641,
      "族群數量": 5642,
      "行動電源的容量": 5643,
      "濃郁的": 5644,
      "PET": 5645,
      "國際空間站": 5646,
      "板塊運動": 5647,
      "意識到": 5648,
      "意識抬頭": 5649,
      "數百萬年前": 5650,
      "越來越多人": 5651,
      "面積約": 5652,
      "成本相對較低": 5653,
      "木薯粉圓": 5654,
      "中元節的": 5655,
      "觸控螢幕": 5656,
      "台灣高鐵的": 5657,
      "更有效率": 5658,
      "吹風機": 5659,
      "瑞士手錶": 5660,
      "解析度": 5661,
      "固態硬碟": 5662,
      "熱騰騰": 5663,
      "25": 5664,
      "Max": 5665,
      "Sto": 5666,
      "一件": 5667,
      "上下": 5668,
      "上萬元": 5669,
      "不要": 5670,
      "了許多": 5671,
      "享有": 5672,
      "今日": 5673,
      "佔有": 5674,
      "作品": 5675,
      "克力": 5676,
      "利亞": 5677,
      "力的": 5678,
      "助於": 5679,
      "區別": 5680,
      "參與": 5681,
      "古老": 5682,
      "在19": 5683,
      "在全球": 5684,
      "在特定": 5685,
      "多少": 5686,
      "它不僅是": 5687,
      "家電": 5688,
      "小的": 5689,
      "度假": 5690,
      "引起": 5691,
      "很大的": 5692,
      "復古": 5693,
      "怎樣的": 5694,
      "慢慢": 5695,
      "我推薦": 5696,
      "或其他": 5697,
      "或特殊": 5698,
      "手寫": 5699,
      "承載": 5700,
      "抗菌": 5701,
      "收集": 5702,
      "整個": 5703,
      "旅遊": 5704,
      "更重要的是": 5705,
      "會用": 5706,
      "會被": 5707,
      "期間": 5708,
      "棕色": 5709,
      "檔案": 5710,
      "檢查": 5711,
      "民間": 5712,
      "氣息": 5713,
      "浪費": 5714,
      "涼爽": 5715,
      "清掃": 5716,
      "激烈": 5717,
      "灰塵": 5718,
      "然而": 5719,
      "燕尾": 5720,
      "理想": 5721,
      "環狀": 5722,
      "畢竟": 5723,
      "疫情": 5724,
      "的身": 5725,
      "的技術": 5726,
      "的自然": 5727,
      "的家庭": 5728,
      "的圖案": 5729,
      "的應用": 5730,
      "的聲音": 5731,
      "的最佳": 5732,
      "的興起": 5733,
      "的可能性": 5734,
      "盛產": 5735,
      "相似": 5736,
      "矽膠": 5737,
      "社交": 5738,
      "等多種": 5739,
      "等調味": 5740,
      "精湛": 5741,
      "紀錄": 5742,
      "組成": 5743,
      "繪畫": 5744,
      "羅馬": 5745,
      "耐磨": 5746,
      "聚酯": 5747,
      "聯名": 5748,
      "肌肉": 5749,
      "至關": 5750,
      "良好": 5751,
      "萬元之間": 5752,
      "葉片": 5753,
      "蕎麥": 5754,
      "行駛": 5755,
      "裝訂": 5756,
      "複合": 5757,
      "規定": 5758,
      "視力": 5759,
      "調節": 5760,
      "譽為": 5761,
      "豬鬃": 5762,
      "貨物": 5763,
      "質和": 5764,
      "近代": 5765,
      "還會加入": 5766,
      "醬料": 5767,
      "釋放": 5768,
      "鏡子": 5769,
      "鏡框": 5770,
      "阻尼": 5771,
      "陶瓷": 5772,
      "階層": 5773,
      "階段": 5774,
      "集中": 5775,
      "離子": 5776,
      "零件": 5777,
      "驅動": 5778,
      "高出": 5779,
      "麻煩": 5780,
      "因為它的": 5781,
      "所以早期": 5782,
      "所以後來": 5783,
      "價格通常在": 5784,
      "主要源於": 5785,
      "設計上": 5786,
      "為了讓": 5787,
      "為了滿足": 5788,
      "成本低廉": 5789,
      "成本效益": 5790,
      "傳統文化": 5791,
      "現代的": 5792,
      "逐漸被": 5793,
      "逐漸成為": 5794,
      "普及率": 5795,
      "材質也": 5796,
      "甚至更高": 5797,
      "影響了": 5798,
      "食物來源": 5799,
      "從幾千到": 5800,
      "品牌的": 5801,
      "50年代": 5802,
      "真的非常": 5803,
      "效率和": 5804,
      "家用投影": 5805,
      "的設計風格": 5806,
      "帶來的": 5807,
      "大幅降低": 5808,
      "越來越多樣化": 5809,
      "可追溯到日治時期": 5810,
      "主要成分包含": 5811,
      "有什麼不同": 5812,
      "流行起來": 5813,
      "冷氣機的": 5814,
      "消費者對": 5815,
      "186": 5816,
      "公斤的": 5817,
      "珍珠奶茶的": 5818,
      "轉變為": 5819,
      "而不是其他": 5820,
      "農曆春節": 5821,
      "大幅提升了": 5822,
      "精緻的": 5823,
      "的原因是什麼": 5824,
      "實木書桌": 5825,
      "90年代": 5826,
      "有些店家會加入": 5827,
      "續航力": 5828,
      "黑糖珍珠": 5829,
      "賦予了": 5830,
      "usk": 5831,
      "客製化": 5832,
      "愛好者": 5833,
      "的起源可以追溯到1960年代的": 5834,
      "Store": 5835,
      "聚酯纖維": 5836,
      "至關重要": 5837,
      "32": 5838,
      "7年": 5839,
      "husk": 5840,
      "一口": 5841,
      "一塊": 5842,
      "一度": 5843,
      "不像": 5844,
      "且需要": 5845,
      "且方便": 5846,
      "且易於": 5847,
      "事件": 5848,
      "互動": 5849,
      "人民": 5850,
      "介面": 5851,
      "但在": 5852,
      "但傳統": 5853,
      "但對於": 5854,
      "低輪": 5855,
      "你的": 5856,
      "侵蝕": 5857,
      "促使": 5858,
      "僅有": 5859,
      "光學": 5860,
      "內的": 5861,
      "到底": 5862,
      "創作": 5863,
      "十五": 5864,
      "卡通": 5865,
      "可塑": 5866,
      "可替換": 5867,
      "呼吸": 5868,
      "和獨特的": 5869,
      "唐朝": 5870,
      "圓圓的": 5871,
      "在不同": 5872,
      "地點": 5873,
      "場景": 5874,
      "多了": 5875,
      "多層": 5876,
      "大容量": 5877,
      "大約落在": 5878,
      "存摺": 5879,
      "存放": 5880,
      "它不僅": 5881,
      "宇宙": 5882,
      "宣傳": 5883,
      "家裡": 5884,
      "就有": 5885,
      "尾巴": 5886,
      "影音": 5887,
      "很久": 5888,
      "從何": 5889,
      "徹底": 5890,
      "心意": 5891,
      "悠久": 5892,
      "悶熱": 5893,
      "想法": 5894,
      "戰時期": 5895,
      "擁擠": 5896,
      "擔心": 5897,
      "擠壓": 5898,
      "攤販": 5899,
      "敬意": 5900,
      "文具": 5901,
      "新手": 5902,
      "日子": 5903,
      "是因為早期": 5904,
      "時段": 5905,
      "更安全": 5906,
      "更豐富": 5907,
      "更耐用": 5908,
      "曾經": 5909,
      "會是": 5910,
      "有助於": 5911,
      "樸素": 5912,
      "橙色": 5913,
      "殘留": 5914,
      "河川": 5915,
      "沿用": 5916,
      "泡菜": 5917,
      "清理": 5918,
      "濃厚的": 5919,
      "瀕危": 5920,
      "炎熱": 5921,
      "無窮": 5922,
      "爆紅": 5923,
      "理念": 5924,
      "的新": 5925,
      "的環境": 5926,
      "的顏色": 5927,
      "的材料": 5928,
      "的動物": 5929,
      "的經典": 5930,
      "的香氣": 5931,
      "的外皮": 5932,
      "的首選": 5933,
      "皇室": 5934,
      "省電": 5935,
      "稀少": 5936,
      "稍高": 5937,
      "窗戶": 5938,
      "站在": 5939,
      "筆電": 5940,
      "精細": 5941,
      "精美的": 5942,
      "給人": 5943,
      "維修": 5944,
      "與其他": 5945,
      "茶館": 5946,
      "蓬勃": 5947,
      "蛋黃": 5948,
      "被譽為": 5949,
      "裹上": 5950,
      "觀測": 5951,
      "觀看": 5952,
      "變形": 5953,
      "躲避": 5954,
      "農民": 5955,
      "進駐": 5956,
      "運送": 5957,
      "過年": 5958,
      "選用": 5959,
      "野外": 5960,
      "陸地": 5961,
      "階級": 5962,
      "音樂": 5963,
      "高輪": 5964,
      "雖然它": 5965,
      "價格不": 5966,
      "價格約落在": 5967,
      "價格約莫": 5968,
      "價格約落在新台幣": 5969,
      "設計和": 5970,
      "現代腳踏車": 5971,
      "功能和": 5972,
      "通常比": 5973,
      "需要一種": 5974,
      "非常重要": 5975,
      "需求的": 5976,
      "最初設計的": 5977,
      "逐漸發展出": 5978,
      "生活方式": 5979,
      "歷史可以追溯到": 5980,
      "值得我們": 5981,
      "清潔劑": 5982,
      "家用無線": 5983,
      "豐富多樣": 5984,
      "生態系": 5985,
      "改良了": 5986,
      "穩定性和": 5987,
      "尺寸和": 5988,
      "儲存空間": 5989,
      "19世紀初": 5990,
      "廠商開始嘗試": 5991,
      "Android的": 5992,
      "觀光客": 5993,
      "日常生活中": 5994,
      "數位相機": 5995,
      "科學研究": 5996,
      "視覺上": 5997,
      "延長保存期限": 5998,
      "都能找到": 5999,
      "書寫工具": 6000,
      "經常需要": 6001,
      "即使是": 6002,
      "牛肉麵的": 6003,
      "完全取代": 6004,
      "櫻花鉤吻鮭的": 6005,
      "特斯拉的": 6006,
      "特斯拉電動車": 6007,
      "開放性": 6008,
      "雖然現在有許多": 6009,
      "印表機的": 6010,
      "尼龍刷毛": 6011,
      "替代品": 6012,
      "被廣泛應用於": 6013,
      "入門級的": 6014,
      "記憶棉床墊": 6015,
      "中元節": 6016,
      "吸水性": 6017,
      "阿里山的日出": 6018,
      "經歷了哪些": 6019,
      "外酥內嫩": 6020,
      "我個人比較喜歡": 6021,
      "輕量化": 6022,
      "代表性鳥類": 6023,
      "IPX": 6024,
      "回味無窮": 6025,
      "掠食者": 6026,
      "觀景台": 6027,
      "燕尾服": 6028,
      "阻尼器": 6029,
      "家用無線路由器": 6030,
      "2公尺": 6031,
      "Co": 6032,
      "In": 6033,
      "PV": 6034,
      "is": 6035,
      "mm": 6036,
      "ps": 6037,
      "ra": 6038,
      "一點": 6039,
      "且不易": 6040,
      "中央": 6041,
      "主導": 6042,
      "也要": 6043,
      "亞板塊": 6044,
      "交易": 6045,
      "人士": 6046,
      "仰賴": 6047,
      "但牠們": 6048,
      "但它們": 6049,
      "但真正": 6050,
      "停車": 6051,
      "備份": 6052,
      "僅限於": 6053,
      "儀器": 6054,
      "免費": 6055,
      "兩種": 6056,
      "共同": 6057,
      "冬季": 6058,
      "列為": 6059,
      "區間": 6060,
      "升力": 6061,
      "卡片": 6062,
      "厚實": 6063,
      "古埃及": 6064,
      "各異": 6065,
      "單品": 6066,
      "單程": 6067,
      "嚼勁": 6068,
      "在發展": 6069,
      "地理": 6070,
      "型的": 6071,
      "堅果": 6072,
      "堆疊": 6073,
      "塑料": 6074,
      "塗層": 6075,
      "多採用": 6076,
      "奶油": 6077,
      "媒體": 6078,
      "客機的": 6079,
      "家居": 6080,
      "家貓": 6081,
      "小孩": 6082,
      "就已": 6083,
      "就被": 6084,
      "就成了": 6085,
      "巧克力": 6086,
      "幾十到": 6087,
      "度高": 6088,
      "引進": 6089,
      "很好": 6090,
      "律賓": 6091,
      "得起": 6092,
      "復育": 6093,
      "情境": 6094,
      "感測器": 6095,
      "房屋": 6096,
      "手帳": 6097,
      "批量": 6098,
      "持久": 6099,
      "捕撈": 6100,
      "擴展": 6101,
      "攝取": 6102,
      "放入": 6103,
      "曲線": 6104,
      "更低": 6105,
      "更為": 6106,
      "更顯": 6107,
      "更舒適": 6108,
      "更安心": 6109,
      "最大": 6110,
      "會在": 6111,
      "會更": 6112,
      "月十五": 6113,
      "有差異": 6114,
      "期盼": 6115,
      "桉樹葉": 6116,
      "極其": 6117,
      "標誌": 6118,
      "次數": 6119,
      "歐亞板塊": 6120,
      "氟化物": 6121,
      "氧化": 6122,
      "水量": 6123,
      "河流": 6124,
      "泡沫": 6125,
      "浪漫": 6126,
      "清爽": 6127,
      "游泳": 6128,
      "濃烈": 6129,
      "烘烤": 6130,
      "照顧": 6131,
      "燈光": 6132,
      "略高": 6133,
      "痕跡": 6134,
      "發射": 6135,
      "的健康": 6136,
      "的高度": 6137,
      "的行動電源": 6138,
      "的果實": 6139,
      "的形象": 6140,
      "的核心": 6141,
      "的名稱": 6142,
      "看著": 6143,
      "石蠟": 6144,
      "神秘": 6145,
      "禮物": 6146,
      "簡樸": 6147,
      "簡直": 6148,
      "紅色的": 6149,
      "絞肉": 6150,
      "緊密": 6151,
      "美感": 6152,
      "而發明的": 6153,
      "聯想": 6154,
      "胡椒": 6155,
      "能快速": 6156,
      "腿肉": 6157,
      "臉部": 6158,
      "自我": 6159,
      "舒服": 6160,
      "華麗": 6161,
      "菲律賓": 6162,
      "蒸煮": 6163,
      "薄膜": 6164,
      "行走": 6165,
      "補充": 6166,
      "讀寫": 6167,
      "變質": 6168,
      "象牙": 6169,
      "貼合": 6170,
      "車輛": 6171,
      "輪廓": 6172,
      "轉型": 6173,
      "農業": 6174,
      "造就": 6175,
      "遇到": 6176,
      "運行": 6177,
      "過度": 6178,
      "那股": 6179,
      "醫用": 6180,
      "防腐": 6181,
      "阻隔": 6182,
      "韌體": 6183,
      "順暢": 6184,
      "頭髮": 6185,
      "騎乘": 6186,
      "骨骼": 6187,
      "高效": 6188,
      "因為其": 6189,
      "因為台灣": 6190,
      "因為不同": 6191,
      "所以發展出": 6192,
      "價格因": 6193,
      "價格在": 6194,
      "價格約": 6195,
      "價格差異很大": 6196,
      "早期是": 6197,
      "00mAh": 6198,
      "為什麼現在": 6199,
      "為什麼總是": 6200,
      "台灣夜市": 6201,
      "使用起來": 6202,
      "主要是為了": 6203,
      "發展歷程": 6204,
      "為了保存": 6205,
      "為了避免": 6206,
      "現代人": 6207,
      "功能也": 6208,
      "重要角色": 6209,
      "環境下": 6210,
      "普及到": 6211,
      "普及的": 6212,
      "有些品牌": 6213,
      "相對較高": 6214,
      "時間和": 6215,
      "清潔效果": 6216,
      "如此普及": 6217,
      "重要的角色": 6218,
      "動物園": 6219,
      "最早在": 6220,
      "時代的": 6221,
      "智慧手錶": 6222,
      "形成的": 6223,
      "源於早期": 6224,
      "電子支付": 6225,
      "Android系統": 6226,
      "也更加": 6227,
      "特色在於": 6228,
      "中國古代的": 6229,
      "直接影響": 6230,
      "西門子": 6231,
      "體積和": 6232,
      "展現出": 6233,
      "主流的": 6234,
      "包裝材料": 6235,
      "昂貴的": 6236,
      "經典的": 6237,
      "藝術品": 6238,
      "適應力": 6239,
      "保育類動物": 6240,
      "其實跟早期": 6241,
      "機械錶": 6242,
      "欣賞到": 6243,
      "迅速取代了": 6244,
      "儀式感": 6245,
      "密度聚乙烯": 6246,
      "足夠的": 6247,
      "將其視為": 6248,
      "精確的": 6249,
      "電池容量": 6250,
      "博物館": 6251,
      "負擔得起": 6252,
      "長期下來": 6253,
      "感光元件尺寸": 6254,
      "彩色筆的": 6255,
      "成功率": 6256,
      "層次感": 6257,
      "的代表性": 6258,
      "空氣清淨機的": 6259,
      "年輕人": 6260,
      "清朝時期": 6261,
      "噴墨印表機": 6262,
      "大多是": 6263,
      "我自己覺得": 6264,
      "16世紀": 6265,
      "浸泡在": 6266,
      "掃地機器人的吸力": 6267,
      "蛋白質": 6268,
      "越好嗎": 6269,
      "技術不斷進步": 6270,
      "扮演了什麼樣的角色": 6271,
      "蓬勃發展": 6272,
      "PVC": 6273,
      "4GHz": 6274,
      "6000": 6275,
      "DPE": 6276,
      "LDPE": 6277,
      "TB": 6278,
      "bps": 6279,
      "ke": 6280,
      "一無": 6281,
      "一百": 6282,
      "一籌": 6283,
      "一開始": 6284,
      "中期": 6285,
      "中華": 6286,
      "之美": 6287,
      "也需要": 6288,
      "也成為了": 6289,
      "了其": 6290,
      "亞洲": 6291,
      "亞麻": 6292,
      "享用": 6293,
      "以來": 6294,
      "份量": 6295,
      "伽利": 6296,
      "但能": 6297,
      "但現在的": 6298,
      "但牠們的": 6299,
      "依靠": 6300,
      "個體": 6301,
      "僅需": 6302,
      "億元": 6303,
      "優惠": 6304,
      "公升": 6305,
      "公頃": 6306,
      "出來的": 6307,
      "分鐘": 6308,
      "前往": 6309,
      "加利": 6310,
      "加工": 6311,
      "卻是": 6312,
      "可分解": 6313,
      "吃的": 6314,
      "和保護": 6315,
      "和娛樂": 6316,
      "啟發": 6317,
      "固體燃料": 6318,
      "土地": 6319,
      "在中國": 6320,
      "基於": 6321,
      "堅持": 6322,
      "報紙": 6323,
      "塊到": 6324,
      "增強": 6325,
      "壯闊": 6326,
      "多個": 6327,
      "多半": 6328,
      "多汁": 6329,
      "太白": 6330,
      "失去": 6331,
      "女性的": 6332,
      "定價": 6333,
      "客家": 6334,
      "客廳": 6335,
      "少量": 6336,
      "山區": 6337,
      "岩石": 6338,
      "已成為": 6339,
      "常綠": 6340,
      "底蘊": 6341,
      "延續": 6342,
      "引入": 6343,
      "強大": 6344,
      "彰顯": 6345,
      "很推薦": 6346,
      "後期": 6347,
      "恢復": 6348,
      "成長": 6349,
      "戶時代": 6350,
      "抓握": 6351,
      "接近": 6352,
      "推廣": 6353,
      "放在": 6354,
      "放置": 6355,
      "教堂": 6356,
      "文字": 6357,
      "日式": 6358,
      "是怎樣的": 6359,
      "時分": 6360,
      "會出現": 6361,
      "林立": 6362,
      "椅子": 6363,
      "模擬": 6364,
      "檸檬": 6365,
      "此外": 6366,
      "每日": 6367,
      "氣壓": 6368,
      "水力": 6369,
      "江戶時代": 6370,
      "波動": 6371,
      "洗完": 6372,
      "流失": 6373,
      "海板塊": 6374,
      "淵源": 6375,
      "清楚": 6376,
      "清蒸": 6377,
      "漁民": 6378,
      "濃濃": 6379,
      "瀏覽": 6380,
      "無人": 6381,
      "爆發": 6382,
      "物資": 6383,
      "獲取": 6384,
      "獵物": 6385,
      "生育": 6386,
      "用竹葉": 6387,
      "當作": 6388,
      "疾病": 6389,
      "登上": 6390,
      "的海": 6391,
      "的手機": 6392,
      "的研究": 6393,
      "的重量": 6394,
      "的要求": 6395,
      "的原理": 6396,
      "的雛形": 6397,
      "皇帝": 6398,
      "相比": 6399,
      "看看": 6400,
      "瞬間": 6401,
      "知名": 6402,
      "篆刻": 6403,
      "粉等": 6404,
      "粉紅色": 6405,
      "精油": 6406,
      "精神": 6407,
      "糕點": 6408,
      "紙質": 6409,
      "統一": 6410,
      "肉眼": 6411,
      "肉餡": 6412,
      "能更": 6413,
      "脆弱": 6414,
      "膨脹": 6415,
      "與傳統": 6416,
      "茶樓": 6417,
      "藍光": 6418,
      "蘿蔔": 6419,
      "街頭": 6420,
      "衡量": 6421,
      "表示": 6422,
      "製冷": 6423,
      "親自": 6424,
      "角形": 6425,
      "試試": 6426,
      "讓牠們": 6427,
      "豆瓣": 6428,
      "豆蠟": 6429,
      "豬絞肉": 6430,
      "負責": 6431,
      "資金": 6432,
      "越多": 6433,
      "較貴": 6434,
      "輪胎": 6435,
      "這跟": 6436,
      "這點": 6437,
      "醃製": 6438,
      "醫院": 6439,
      "銳減": 6440,
      "長條": 6441,
      "關於": 6442,
      "阻力": 6443,
      "阻擋": 6444,
      "降至": 6445,
      "隻左右": 6446,
      "雞腿肉": 6447,
      "電器": 6448,
      "電線": 6449,
      "青銅": 6450,
      "預熱": 6451,
      "飽和": 6452,
      "香精": 6453,
      "驚喜": 6454,
      "髮質": 6455,
      "黏土": 6456,
      "黑白": 6457,
      "雖然這種": 6458,
      "因為這樣": 6459,
      "所以為了": 6460,
      "早期人們": 6461,
      "個人風格": 6462,
      "為什麼需要": 6463,
      "為什麼通常是": 6464,
      "主要在": 6465,
      "為了適應": 6466,
      "例如使用": 6467,
      "技術的進步": 6468,
      "但是牠們": 6469,
      "成本和": 6470,
      "成本考量": 6471,
      "傳統硬碟": 6472,
      "方便的": 6473,
      "逐漸下降": 6474,
      "而且能": 6475,
      "人們需要": 6476,
      "容易造成": 6477,
      "文化意涵": 6478,
      "有些會": 6479,
      "成分上": 6480,
      "雖然現在也有": 6481,
      "因為當時沒有": 6482,
      "一般家庭": 6483,
      "值得細細品味": 6484,
      "它的起源": 6485,
      "結構和": 6486,
      "顏色和": 6487,
      "這麼大": 6488,
      "這麼多樣化": 6489,
      "元到數十": 6490,
      "舒適性": 6491,
      "保護區": 6492,
      "真的讓人": 6493,
      "的價格從幾": 6494,
      "的價格約在": 6495,
      "如此多元": 6496,
      "演變為": 6497,
      "更多的": 6498,
      "因為它能": 6499,
      "為什麼會成為": 6500,
      "為什麼會成為台灣": 6501,
      "為什麼會被稱為": 6502,
      "作為主要": 6503,
      "保存食物": 6504,
      "也能感受到": 6505,
      "生產成本": 6506,
      "能力和": 6507,
      "數千到": 6508,
      "形成獨特的": 6509,
      "多元化的": 6510,
      "的美味": 6511,
      "運輸系統": 6512,
      "電子書": 6513,
      "經濟發展": 6514,
      "有什麼特別": 6515,
      "Android作業系統": 6516,
      "日常使用": 6517,
      "在於它": 6518,
      "使用者體驗": 6519,
      "有關喔": 6520,
      "油炸後": 6521,
      "符合人體工學": 6522,
      "造成的": 6523,
      "體積較大": 6524,
      "專業攝影": 6525,
      "照片品質": 6526,
      "鳳梨酥的": 6527,
      "雞排的": 6528,
      "藝術家": 6529,
      "根據統計": 6530,
      "變得更": 6531,
      "收納空間": 6532,
      "不再是": 6533,
      "取得且": 6534,
      "台北101大樓": 6535,
      "高階機種": 6536,
      "原子筆的": 6537,
      "實在是": 6538,
      "情況下": 6539,
      "烏龜的": 6540,
      "科學家們": 6541,
      "總體來說": 6542,
      "輔助系統": 6543,
      "這項技術": 6544,
      "價位的": 6545,
      "睡眠品質": 6546,
      "從幾十元到上百元不等": 6547,
      "縮短了": 6548,
      "幸福感": 6549,
      "定位為": 6550,
      "提醒我們": 6551,
      "旗艦機": 6552,
      "電影院": 6553,
      "香氛蠟燭": 6554,
      "日記本": 6555,
      "萬聖節": 6556,
      "成為台灣的代表性鳥類": 6557,
      "熱騰騰的": 6558,
      "古老的": 6559,
      "從何而來": 6560,
      "批量生產": 6561,
      "菲律賓海板塊": 6562,
      ")、": 6563,
      ",「": 6564,
      "350": 6565,
      "8000": 6566,
      "AD": 6567,
      "NA": 6568,
      "Sa": 6569,
      "od": 6570,
      "”,": 6571,
      "上聯": 6572,
      "下次": 6573,
      "不到的": 6574,
      "且不": 6575,
      "並未": 6576,
      "之下": 6577,
      "人次": 6578,
      "但容易": 6579,
      "但如果": 6580,
      "但經過": 6581,
      "但直到": 6582,
      "佩戴": 6583,
      "來提升": 6584,
      "來調整": 6585,
      "侈品": 6586,
      "便捷": 6587,
      "保障": 6588,
      "信仰": 6589,
      "偏向": 6590,
      "億美元": 6591,
      "優美的": 6592,
      "優質的": 6593,
      "儲蓄": 6594,
      "免受": 6595,
      "兒童": 6596,
      "具體": 6597,
      "則可能": 6598,
      "創立": 6599,
      "動植物": 6600,
      "勝一籌": 6601,
      "勞力": 6602,
      "南部": 6603,
      "厚厚的": 6604,
      "反射": 6605,
      "受損": 6606,
      "口腔": 6607,
      "可調整": 6608,
      "合適": 6609,
      "名字": 6610,
      "呵護": 6611,
      "和更": 6612,
      "啃食": 6613,
      "商務": 6614,
      "單位": 6615,
      "單眼": 6616,
      "國獸": 6617,
      "圓柱": 6618,
      "團隊": 6619,
      "在工業革命": 6620,
      "地殼": 6621,
      "地的": 6622,
      "填充": 6623,
      "壯觀的": 6624,
      "夏日": 6625,
      "多利亞": 6626,
      "夥伴": 6627,
      "大地": 6628,
      "奢侈品": 6629,
      "女王": 6630,
      "始於": 6631,
      "學者": 6632,
      "富裕": 6633,
      "專注": 6634,
      "對比": 6635,
      "尤加利": 6636,
      "層的": 6637,
      "帆布": 6638,
      "常被": 6639,
      "廉價": 6640,
      "引擎": 6641,
      "強壯": 6642,
      "後續": 6643,
      "得名": 6644,
      "從傳統": 6645,
      "微粒": 6646,
      "忙碌": 6647,
      "快樂": 6648,
      "悅耳": 6649,
      "想要": 6650,
      "應有": 6651,
      "懸浮": 6652,
      "打開": 6653,
      "拋棄": 6654,
      "攀登": 6655,
      "既能": 6656,
      "日圓": 6657,
      "旨在": 6658,
      "是首": 6659,
      "是一個": 6660,
      "時刻": 6661,
      "時鐘": 6662,
      "景點": 6663,
      "暖化": 6664,
      "更勝一籌": 6665,
      "會導致": 6666,
      "木質": 6667,
      "梳妝台": 6668,
      "棉絮": 6669,
      "棉質": 6670,
      "植被": 6671,
      "極低": 6672,
      "極為": 6673,
      "樣貌": 6674,
      "步道": 6675,
      "殖民": 6676,
      "污垢": 6677,
      "海上": 6678,
      "消失": 6679,
      "深遠": 6680,
      "測試": 6681,
      "湖泊": 6682,
      "漫長": 6683,
      "潛力": 6684,
      "灰色": 6685,
      "無數": 6686,
      "照明": 6687,
      "熱量": 6688,
      "燈籠": 6689,
      "牛奶": 6690,
      "猴子的": 6691,
      "獅子": 6692,
      "獨一無": 6693,
      "珊瑚": 6694,
      "畫面": 6695,
      "當季": 6696,
      "百搭": 6697,
      "的成分": 6698,
      "的品質": 6699,
      "的結構": 6700,
      "的效果": 6701,
      "的發明": 6702,
      "的限制": 6703,
      "的小吃": 6704,
      "的質感": 6705,
      "的作用": 6706,
      "的位置": 6707,
      "的行為": 6708,
      "皇家": 6709,
      "皮毛": 6710,
      "盡有": 6711,
      "矯正": 6712,
      "石灰": 6713,
      "硫磺": 6714,
      "神聖": 6715,
      "穿透": 6716,
      "立刻": 6717,
      "站體": 6718,
      "競賽": 6719,
      "等新": 6720,
      "等材質": 6721,
      "等領域": 6722,
      "算法": 6723,
      "精密的": 6724,
      "紅蔥": 6725,
      "純棉": 6726,
      "細胞": 6727,
      "絕佳": 6728,
      "統治": 6729,
      "維多利亞": 6730,
      "繁榮": 6731,
      "耗電量": 6732,
      "肉燥": 6733,
      "能成為": 6734,
      "能滿足": 6735,
      "能展現": 6736,
      "與人類": 6737,
      "與預算": 6738,
      "舒緩": 6739,
      "船隻": 6740,
      "色系": 6741,
      "花樣": 6742,
      "花生": 6743,
      "荷蘭": 6744,
      "莊重": 6745,
      "蒜蓉": 6746,
      "蔬果": 6747,
      "蘊含": 6748,
      "蛋糕": 6749,
      "行星": 6750,
      "裝備": 6751,
      "西洋": 6752,
      "要考慮": 6753,
      "設置": 6754,
      "認識": 6755,
      "說法": 6756,
      "讓人們": 6757,
      "讓更多人": 6758,
      "購物": 6759,
      "起飛": 6760,
      "跳躍": 6761,
      "身影": 6762,
      "車票": 6763,
      "較多": 6764,
      "較硬": 6765,
      "辟邪": 6766,
      "這份": 6767,
      "這段": 6768,
      "造價": 6769,
      "邊緣": 6770,
      "都市": 6771,
      "都非常": 6772,
      "配置": 6773,
      "金礦": 6774,
      "限量": 6775,
      "除臭": 6776,
      "陪伴": 6777,
      "隔層": 6778,
      "雄性": 6779,
      "願意": 6780,
      "風潮": 6781,
      "飛機的": 6782,
      "餐飲": 6783,
      "香菇": 6784,
      "驚人": 6785,
      "骨架": 6786,
      "體溫": 6787,
      "高山": 6788,
      "高一些": 6789,
      "高性能": 6790,
      "麵條": 6791,
      "黃豆": 6792,
      "因為古": 6793,
      "所以將": 6794,
      "所以就": 6795,
      "所以現在": 6796,
      "所以成為": 6797,
      "所以當時的": 6798,
      "價格差異": 6799,
      "選擇了": 6800,
      "為了改善": 6801,
      "但是經過": 6802,
      "我個人覺得它": 6803,
      "我個人覺得觀察": 6804,
      "需要將": 6805,
      "需要用": 6806,
      "需要經常": 6807,
      "開始出現": 6808,
      "方便又": 6809,
      "方便民眾": 6810,
      "最初並非": 6811,
      "提升生活品質": 6812,
      "而且可以": 6813,
      "而且不同": 6814,
      "而且容易": 6815,
      "隨著科技進步": 6816,
      "文化象徵": 6817,
      "有些則": 6818,
      "相對簡單": 6819,
      "成分也": 6820,
      "199": 6821,
      "製作方式": 6822,
      "常見成分": 6823,
      "獨特的魅力": 6824,
      "其他動物": 6825,
      "不僅僅是": 6826,
      "其實源自於": 6827,
      "時間演進": 6828,
      "差異這麼大": 6829,
      "口感和": 6830,
      "產生異味": 6831,
      "顏色選擇": 6832,
      "適合的": 6833,
      "舒適感": 6834,
      "效率低": 6835,
      "效率不高": 6836,
      "的價格差異很大": 6837,
      "如果預算": 6838,
      "耐用度": 6839,
      "速度慢": 6840,
      "速度更快": 6841,
      "金屬外殼": 6842,
      "無論你": 6843,
      "但隨著技術進步": 6844,
      "但隨著科技進步": 6845,
      "減少了": 6846,
      "複雜度": 6847,
      "的起源可追溯到": 6848,
      "空氣品質": 6849,
      "運動手套": 6850,
      "全球暖化": 6851,
      "工業用途": 6852,
      "感受那份": 6853,
      "觀光發展": 6854,
      "能提供更好的": 6855,
      "希望能": 6856,
      "都能感受到": 6857,
      "加熱管": 6858,
      "很多人": 6859,
      "糯米粉": 6860,
      "包裝方式": 6861,
      "上千元": 6862,
      "更能體會": 6863,
      "的地質": 6864,
      "也會影響": 6865,
      "不可或缺的一部分": 6866,
      "西門町的": 6867,
      "中秋餅的形狀": 6868,
      "的好選擇": 6869,
      "精確度": 6870,
      "為什麼要用": 6871,
      "生態系統中": 6872,
      "電池續航力": 6873,
      "基本的": 6874,
      "產業發展": 6875,
      "目前市面上常見的": 6876,
      "發酵過程": 6877,
      "就能買到": 6878,
      "的生活方式": 6879,
      "紅包金額": 6880,
      "太空探索": 6881,
      "正式場合": 6882,
      "白色婚紗": 6883,
      "煙火表演": 6884,
      "70年代": 6885,
      "的代表之一": 6886,
      "讓它成為": 6887,
      "更好地": 6888,
      "原本的": 6889,
      "替代方案": 6890,
      "長頸鹿的": 6891,
      "不錯的": 6892,
      "優點是": 6893,
      "透氣性": 6894,
      "台灣欒樹的果實": 6895,
      "增添風味": 6896,
      "大象的": 6897,
      "情感的": 6898,
      "體現了": 6899,
      "準確性": 6900,
      "變頻技術": 6901,
      "主要功能就是": 6902,
      "家人團聚": 6903,
      "辨識度": 6904,
      "居住的地方": 6905,
      "飲食習慣": 6906,
      "營養價值": 6907,
      "值得一試": 6908,
      "普通的": 6909,
      "循環信用": 6910,
      "自動駕駛輔助系統": 6911,
      "完整的": 6912,
      "草原上": 6913,
      "技術不成熟": 6914,
      "價格從幾十元到數百元不等": 6915,
      "17世紀": 6916,
      "我個人非常推薦": 6917,
      "太魯閣峽谷的形成": 6918,
      "分離式冷氣": 6919,
      "領先地位": 6920,
      "清脆悅耳": 6921,
      "紀錄片": 6922,
      "簡直是": 6923,
      "聯想到": 6924,
      "造就了": 6925,
      "醫用口罩": 6926,
      "太白粉": 6927,
      "試試看": 6928,
      "豆瓣醬": 6929,
      "長條形": 6930,
      "應有盡有": 6931,
      "獨一無二": 6932,
      "紅蔥頭": 6933,
      "14": 6934,
      "24": 6935,
      "4000": 6936,
      "5GHz": 6937,
      "CD": 6938,
      "CM": 6939,
      "CAD": 6940,
      "Ni": 6941,
      "ac": 6942,
      "es": 6943,
      "sh": 6944,
      "一千": 6945,
      "一座": 6946,
      "一把": 6947,
      "下去": 6948,
      "下聯": 6949,
      "不下": 6950,
      "不大": 6951,
      "不一定要": 6952,
      "不一樣": 6953,
      "並在": 6954,
      "之前": 6955,
      "之地": 6956,
      "也比": 6957,
      "也逐漸": 6958,
      "人物": 6959,
      "人認為": 6960,
      "介於": 6961,
      "付款": 6962,
      "任務": 6963,
      "但早期": 6964,
      "低溫": 6965,
      "住宿": 6966,
      "保溫": 6967,
      "偶數": 6968,
      "偽裝": 6969,
      "傳說": 6970,
      "僅剩": 6971,
      "優先": 6972,
      "優化": 6973,
      "儲值": 6974,
      "允許": 6975,
      "充足": 6976,
      "光山": 6977,
      "光源": 6978,
      "光量": 6979,
      "入山": 6980,
      "公路": 6981,
      "其價值": 6982,
      "再利用": 6983,
      "剪裁": 6984,
      "劑和": 6985,
      "勾起": 6986,
      "十年代": 6987,
      "千秋": 6988,
      "升級": 6989,
      "南方": 6990,
      "卻能": 6991,
      "又充滿": 6992,
      "又有哪些": 6993,
      "受限": 6994,
      "只看": 6995,
      "可見": 6996,
      "台式": 6997,
      "吉林": 6998,
      "和功能": 6999,
      "和口感": 7000,
      "喜悅": 7001,
      "單價": 7002,
      "單翼": 7003,
      "在傳統": 7004,
      "在某些": 7005,
      "在歐亞板塊": 7006,
      "夏季": 7007,
      "外表": 7008,
      "多變": 7009,
      "多重": 7010,
      "多使用": 7011,
      "夠用": 7012,
      "大規模": 7013,
      "奇蹟": 7014,
      "奔跑": 7015,
      "婚禮": 7016,
      "字體": 7017,
      "安靜": 7018,
      "定存": 7019,
      "定頻": 7020,
      "客機": 7021,
      "寬度": 7022,
      "封閉": 7023,
      "專用": 7024,
      "專門": 7025,
      "尋求": 7026,
      "對皮膚": 7027,
      "就足夠": 7028,
      "居高": 7029,
      "層板": 7030,
      "山脈": 7031,
      "工匠": 7032,
      "帶動": 7033,
      "帽子": 7034,
      "底部": 7035,
      "庶民": 7036,
      "強勁": 7037,
      "彷彿": 7038,
      "很長": 7039,
      "很適合": 7040,
      "從最初的": 7041,
      "懸掛": 7042,
      "才是最": 7043,
      "抽取": 7044,
      "拍出": 7045,
      "搬運": 7046,
      "據統計": 7047,
      "收到": 7048,
      "改進": 7049,
      "放流": 7050,
      "效應": 7051,
      "新娘": 7052,
      "於是": 7053,
      "旅客": 7054,
      "是人類": 7055,
      "是關鍵": 7056,
      "時光": 7057,
      "暈染": 7058,
      "更廣泛": 7059,
      "更多樣化": 7060,
      "更輕巧": 7061,
      "書籍": 7062,
      "最棒": 7063,
      "會以": 7064,
      "會增加": 7065,
      "會準備": 7066,
      "有機": 7067,
      "有點": 7068,
      "有許多": 7069,
      "有嚼勁": 7070,
      "末期": 7071,
      "東部": 7072,
      "果肉": 7073,
      "染色": 7074,
      "框架": 7075,
      "梳妝": 7076,
      "標榜": 7077,
      "標記": 7078,
      "樣子": 7079,
      "樣式": 7080,
      "樸實": 7081,
      "樹木": 7082,
      "橘黃色": 7083,
      "機構": 7084,
      "檜木": 7085,
      "歡樂": 7086,
      "比傳統": 7087,
      "毫安": 7088,
      "氣流": 7089,
      "水和": 7090,
      "水漲": 7091,
      "水質": 7092,
      "沒落": 7093,
      "沙灘": 7094,
      "油墨": 7095,
      "油膩": 7096,
      "洗劑": 7097,
      "洗滌": 7098,
      "活潑": 7099,
      "涵蓋": 7100,
      "深藍色": 7101,
      "清涼": 7102,
      "清澈": 7103,
      "湖光山": 7104,
      "溫控": 7105,
      "濕潤": 7106,
      "火山": 7107,
      "火藥": 7108,
      "炸雞": 7109,
      "熱鬧": 7110,
      "狀態": 7111,
      "獨家": 7112,
      "珍稀": 7113,
      "現今": 7114,
      "由來": 7115,
      "發揮": 7116,
      "的主": 7117,
      "的光": 7118,
      "的鮮": 7119,
      "的改良": 7120,
      "的價值": 7121,
      "的製造": 7122,
      "的尺寸": 7123,
      "的生物": 7124,
      "的主流": 7125,
      "的紙張": 7126,
      "的氣味": 7127,
      "的大小": 7128,
      "的Q彈": 7129,
      "的版本": 7130,
      "的鬃毛": 7131,
      "的方法": 7132,
      "的服裝": 7133,
      "的英國": 7134,
      "的多樣性": 7135,
      "的日子": 7136,
      "直覺": 7137,
      "硫酸": 7138,
      "硬度": 7139,
      "礦業": 7140,
      "種子": 7141,
      "穿搭": 7142,
      "竹子的": 7143,
      "等高": 7144,
      "等其他": 7145,
      "等材料": 7146,
      "筍絲": 7147,
      "策略": 7148,
      "粉圓的": 7149,
      "紅茶": 7150,
      "紋理": 7151,
      "紙板": 7152,
      "細微": 7153,
      "組織": 7154,
      "絲綢": 7155,
      "網頁": 7156,
      "繽紛": 7157,
      "美學": 7158,
      "美滿": 7159,
      "美好的": 7160,
      "翅膀": 7161,
      "而發展出": 7162,
      "而有所不同": 7163,
      "耗材": 7164,
      "耳朵": 7165,
      "耳機": 7166,
      "聞起來": 7167,
      "聰明": 7168,
      "聽起來": 7169,
      "能將": 7170,
      "能板": 7171,
      "能源": 7172,
      "能看到": 7173,
      "航線": 7174,
      "船票": 7175,
      "船高": 7176,
      "芝麻": 7177,
      "花蓮": 7178,
      "萬件": 7179,
      "萬到": 7180,
      "觀星": 7181,
      "計時": 7182,
      "計算": 7183,
      "許可": 7184,
      "議題": 7185,
      "護眼": 7186,
      "豐盛": 7187,
      "費力": 7188,
      "費時": 7189,
      "起司": 7190,
      "趣味": 7191,
      "足以": 7192,
      "路段": 7193,
      "車廂": 7194,
      "軟嫩": 7195,
      "較差": 7196,
      "較重": 7197,
      "輕易": 7198,
      "逐步": 7199,
      "這道": 7200,
      "通訊": 7201,
      "過高": 7202,
      "遮蔽": 7203,
      "還不": 7204,
      "還有哪些": 7205,
      "部位": 7206,
      "都需要": 7207,
      "配上": 7208,
      "酥雞": 7209,
      "醫學": 7210,
      "重力": 7211,
      "金絲": 7212,
      "鋼材": 7213,
      "鋼筆": 7214,
      "附加": 7215,
      "隱沒": 7216,
      "電壓": 7217,
      "音質": 7218,
      "頂級": 7219,
      "頰袋": 7220,
      "顆粒": 7221,
      "風貌": 7222,
      "飲品": 7223,
      "體能": 7224,
      "高處": 7225,
      "鮮明": 7226,
      "黑色的": 7227,
      "雖然選擇": 7228,
      "雖然後來": 7229,
      "雖然藍鵲": 7230,
      "雖然SSD": 7231,
      "因為傳統": 7232,
      "因為牠們的": 7233,
      "所以初期": 7234,
      "所以廠商開始": 7235,
      "價格下降": 7236,
      "價格大約落在": 7237,
      "早期因為": 7238,
      "個人來說": 7239,
      "為什麼早期": 7240,
      "台灣早期": 7241,
      "當時為了": 7242,
      "主要由": 7243,
      "主要提供": 7244,
      "主要用來": 7245,
      "主要分布": 7246,
      "主要仰賴": 7247,
      "發展到": 7248,
      "發展初期": 7249,
      "為了保護": 7250,
      "可以考慮": 7251,
      "但是因為": 7252,
      "但是牠們的": 7253,
      "成本不高": 7254,
      "不同材質的": 7255,
      "現代雨傘": 7256,
      "通常包含": 7257,
      "非常棒": 7258,
      "開始在": 7259,
      "方便性": 7260,
      "獨特風味": 7261,
      "可能需要": 7262,
      "有些甚至": 7263,
      "雖然現在科技進步": 7264,
      "製作上": 7265,
      "製作技術": 7266,
      "製作工法": 7267,
      "目前台灣的": 7268,
      "一般的": 7269,
      "它們不僅是": 7270,
      "現在市面上的": 7271,
      "讓人感覺": 7272,
      "讓人回味無窮": 7273,
      "口感豐富": 7274,
      "口感Q彈": 7275,
      "採用更": 7276,
      "效率與": 7277,
      "家用電子體重計": 7278,
      "家用冷氣機的": 7279,
      "的價格約落在新台幣": 7280,
      "如此之": 7281,
      "上的圖案": 7282,
      "取代的": 7283,
      "80元之間": 7284,
      "生態環境": 7285,
      "大幅降低了": 7286,
      "的需求增加": 7287,
      "廣泛應用於": 7288,
      "生產效率": 7289,
      "價格從幾百元到": 7290,
      "穩定的": 7291,
      "日本政府": 7292,
      "食材取得": 7293,
      "持續的": 7294,
      "冰箱內部": 7295,
      "機車密度": 7296,
      "的美譽": 7297,
      "研究顯示": 7298,
      "地位的象徵": 7299,
      "應用在": 7300,
      "為主食": 7301,
      "強調其": 7302,
      "絕對是個": 7303,
      "數位化": 7304,
      "數據顯示": 7305,
      "如今的": 7306,
      "推出各種": 7307,
      "夜市小吃": 7308,
      "特定的": 7309,
      "是個很棒": 7310,
      "體重可達": 7311,
      "提高了": 7312,
      "的一環": 7313,
      "牛肉麵店": 7314,
      "透明的": 7315,
      "HDPE": 7316,
      "取代了傳統的": 7317,
      "售價約在": 7318,
      "為什麼要採用": 7319,
      "幾百元不等": 7320,
      "是台灣夜市": 7321,
      "我個人很喜歡在": 7322,
      "長期使用": 7323,
      "農曆七": 7324,
      "農曆新年": 7325,
      "日月潭的": 7326,
      "不再只是": 7327,
      "開放原始": 7328,
      "太陽能板": 7329,
      "蒸汽機在工業革命": 7330,
      "固定文件": 7331,
      "幾乎都": 7332,
      "商業化": 7333,
      "整合了": 7334,
      "競爭激烈": 7335,
      "台北101的": 7336,
      "輕薄的": 7337,
      "有何差異": 7338,
      "辦公室椅": 7339,
      "春聯的": 7340,
      "能量密度": 7341,
      "文化中心": 7342,
      "印刷技術": 7343,
      "飲料包裝": 7344,
      "tel": 7345,
      "觀賞價值": 7346,
      "筆記本電腦": 7347,
      "烏龜殼": 7348,
      "目的是為了": 7349,
      "年輕族群": 7350,
      "價格通常落在": 7351,
      "價格通常落在新台幣": 7352,
      "19世紀末期": 7353,
      "準確度": 7354,
      "長度約": 7355,
      "價格從幾百到數千不等": 7356,
      "企鵝的": 7357,
      "斑馬的條紋": 7358,
      "台北捷運的": 7359,
      "北極熊的": 7360,
      "合成纖維": 7361,
      "工程師": 7362,
      "心情愉悅": 7363,
      "的特殊氣味": 7364,
      "旋轉式": 7365,
      "國民美食": 7366,
      "氨基酸洗髮精": 7367,
      "讓使用者能": 7368,
      "高速鐵路": 7369,
      "客運公司": 7370,
      "各有千秋": 7371,
      "尚未普及": 7372,
      "大眾運輸工具": 7373,
      "平方公里": 7374,
      "紀念品": 7375,
      "為什麼這麼受歡迎": 7376,
      "952公尺": 7377,
      "促進了": 7378,
      "內容物": 7379,
      "窗型冷氣": 7380,
      "令人驚嘆": 7381,
      "但實際上": 7382,
      "成像品質": 7383,
      "滋生細菌": 7384,
      "酸甜交織": 7385,
      "為什麼會這麼普及": 7386,
      "容易腐壞": 7387,
      "環狀線": 7388,
      "盛產的": 7389,
      "精湛的": 7390,
      "家用投影機的": 7391,
      "的起源可以追溯到1960年代的台南": 7392,
      "可塑性": 7393,
      "瀕危物種": 7394,
      "炎熱的": 7395,
      "給人一種": 7396,
      "牛肉麵的湯頭": 7397,
      "IPX4": 7398,
      "中央山脈": 7399,
      "主導地位": 7400,
      "體積和重量": 7401,
      "伽利略": 7402,
      "濃濃的": 7403,
      "勞力士": 7404,
      "是首要考量": 7405,
      "珊瑚礁": 7406,
      "矯正視力": 7407,
      "無論你是": 7408,
      "循環信用額": 7409,
      "CMOS": 7410,
      "CADR": 7411,
      "居高不下": 7412,
      "水漲船高": 7413,
      "湖光山色": 7414,
      "開放原始碼": 7415,
      "蒸汽機在工業革命中": 7416,
      "1TB": 7417,
      "2500": 7418,
      "23年": 7419,
      "35": 7420,
      "36": 7421,
      "45": 7422,
      "47": 7423,
      "CCD": 7424,
      "IS": 7425,
      "Kob": 7426,
      "Mod": 7427,
      "as": 7428,
      "一包": 7429,
      "一同": 7430,
      "一步": 7431,
      "一盒": 7432,
      "一道": 7433,
      "上世紀": 7434,
      "下方": 7435,
      "不小": 7436,
      "不適": 7437,
      "不適合": 7438,
      "且易": 7439,
      "且具有": 7440,
      "並無": 7441,
      "並沒有": 7442,
      "也可能": 7443,
      "也就是": 7444,
      "也奠定了": 7445,
      "也很有": 7446,
      "也反映了": 7447,
      "了這個": 7448,
      "了人們對": 7449,
      "亞熱帶": 7450,
      "亡靈": 7451,
      "人員": 7452,
      "人會": 7453,
      "人造": 7454,
      "代步": 7455,
      "代的": 7456,
      "以其": 7457,
      "以為": 7458,
      "休息": 7459,
      "但我": 7460,
      "但不同": 7461,
      "但這個": 7462,
      "佔率": 7463,
      "便是": 7464,
      "便逐漸": 7465,
      "信件": 7466,
      "偏愛": 7467,
      "偏高": 7468,
      "做到": 7469,
      "傳達": 7470,
      "傷害": 7471,
      "傾向": 7472,
      "儲物": 7473,
      "元上下": 7474,
      "充分": 7475,
      "內建": 7476,
      "全家": 7477,
      "全面": 7478,
      "兩千": 7479,
      "兩者": 7480,
      "公元": 7481,
      "冷卻": 7482,
      "凝膠": 7483,
      "刀頭": 7484,
      "分子": 7485,
      "划算": 7486,
      "到台灣": 7487,
      "刺繡": 7488,
      "則可": 7489,
      "務必": 7490,
      "北歐": 7491,
      "北部": 7492,
      "千萬": 7493,
      "南極": 7494,
      "即便": 7495,
      "原味": 7496,
      "叮咬": 7497,
      "可調": 7498,
      "可回收": 7499,
      "史上": 7500,
      "各業": 7501,
      "各行": 7502,
      "吸附": 7503,
      "周圍": 7504,
      "味的": 7505,
      "呼嚕": 7506,
      "命名": 7507,
      "和其他": 7508,
      "和家庭": 7509,
      "單顆": 7510,
      "嘆為": 7511,
      "回到": 7512,
      "困境": 7513,
      "在手": 7514,
      "在此": 7515,
      "在日本": 7516,
      "在水中": 7517,
      "士兵": 7518,
      "多在": 7519,
      "多層次": 7520,
      "大腦": 7521,
      "天敵": 7522,
      "天空": 7523,
      "太多": 7524,
      "奧秘": 7525,
      "好用": 7526,
      "好吃的": 7527,
      "威脅": 7528,
      "孕育": 7529,
      "它跟": 7530,
      "官方": 7531,
      "室溫": 7532,
      "家中": 7533,
      "容性": 7534,
      "密封": 7535,
      "富含": 7536,
      "寧靜": 7537,
      "導熱": 7538,
      "就像是": 7539,
      "巧妙": 7540,
      "市佔率": 7541,
      "帝國": 7542,
      "平安": 7543,
      "式面紙": 7544,
      "彈簧": 7545,
      "彼此": 7546,
      "很特別": 7547,
      "從綠色": 7548,
      "復興": 7549,
      "必嚐": 7550,
      "性及": 7551,
      "惡靈": 7552,
      "愛爾": 7553,
      "感十足": 7554,
      "我強烈": 7555,
      "或者": 7556,
      "戴上": 7557,
      "所需": 7558,
      "抗拒": 7559,
      "抵禦": 7560,
      "拆卸": 7561,
      "掉落": 7562,
      "採集": 7563,
      "探險": 7564,
      "措施": 7565,
      "提取": 7566,
      "擴張": 7567,
      "擴散": 7568,
      "政治": 7569,
      "數值": 7570,
      "文人": 7571,
      "斷裂": 7572,
      "方向": 7573,
      "是用": 7574,
      "晃動": 7575,
      "更強調": 7576,
      "更豐富的": 7577,
      "更乾淨": 7578,
      "會讓": 7579,
      "會利用": 7580,
      "有不同的": 7581,
      "未能": 7582,
      "東西": 7583,
      "林業": 7584,
      "林秀": 7585,
      "柔和": 7586,
      "桌面": 7587,
      "椰果": 7588,
      "極致": 7589,
      "極大地": 7590,
      "構成": 7591,
      "模組": 7592,
      "橘色": 7593,
      "機芯": 7594,
      "款的": 7595,
      "歸類": 7596,
      "殺菌": 7597,
      "毛色": 7598,
      "水洗": 7599,
      "水凝膠": 7600,
      "汙染": 7601,
      "沉澱": 7602,
      "沾黏": 7603,
      "流暢": 7604,
      "流程": 7605,
      "海豹": 7606,
      "淘金": 7607,
      "深受": 7608,
      "深色": 7609,
      "清除": 7610,
      "滿滿的": 7611,
      "漫步": 7612,
      "漸漸": 7613,
      "濃厚": 7614,
      "濃度": 7615,
      "燃油": 7616,
      "爆炸": 7617,
      "牆壁": 7618,
      "物體": 7619,
      "特製": 7620,
      "珍惜": 7621,
      "甜點": 7622,
      "略有差異": 7623,
      "畫質": 7624,
      "疑慮": 7625,
      "疫苗": 7626,
      "的大": 7627,
      "的熱": 7628,
      "的石": 7629,
      "的起": 7630,
      "的台灣": 7631,
      "的文化": 7632,
      "的一種": 7633,
      "的時間": 7634,
      "的過程": 7635,
      "的活動": 7636,
      "的意義": 7637,
      "的刀片": 7638,
      "的牙齒": 7639,
      "的時候": 7640,
      "的做法": 7641,
      "的鵝鑾鼻燈塔": 7642,
      "的麻煩": 7643,
      "盡量": 7644,
      "監控": 7645,
      "直徑": 7646,
      "相連": 7647,
      "相間": 7648,
      "破壞": 7649,
      "破碎": 7650,
      "磁條": 7651,
      "磁道": 7652,
      "磨損": 7653,
      "稱呼": 7654,
      "穩固": 7655,
      "突發": 7656,
      "等多元": 7657,
      "等產業": 7658,
      "算是": 7659,
      "簡陋": 7660,
      "簽名": 7661,
      "約需": 7662,
      "組件": 7663,
      "線上": 7664,
      "線材": 7665,
      "編輯": 7666,
      "緩震": 7667,
      "繼續": 7668,
      "美好": 7669,
      "美式": 7670,
      "翼型": 7671,
      "肉質": 7672,
      "肌膚": 7673,
      "肥瘦": 7674,
      "能產生": 7675,
      "能找到": 7676,
      "能捕捉": 7677,
      "與現代": 7678,
      "與創新": 7679,
      "航空": 7680,
      "若要": 7681,
      "草帽": 7682,
      "莊嚴": 7683,
      "落差": 7684,
      "蒸氣": 7685,
      "蓮蓉": 7686,
      "蠶絲": 7687,
      "衣服": 7688,
      "西式": 7689,
      "要追溯到": 7690,
      "親友": 7691,
      "觀念": 7692,
      "觀止": 7693,
      "訊號": 7694,
      "試圖": 7695,
      "語言": 7696,
      "誤以為": 7697,
      "調查": 7698,
      "證明": 7699,
      "變動": 7700,
      "財富": 7701,
      "貴重": 7702,
      "貿易": 7703,
      "踏板": 7704,
      "軟化": 7705,
      "載客": 7706,
      "輕微": 7707,
      "轉換": 7708,
      "辣椒": 7709,
      "近距離": 7710,
      "透氧": 7711,
      "透鏡": 7712,
      "連線": 7713,
      "進光量": 7714,
      "進一步": 7715,
      "遊覽": 7716,
      "過熱": 7717,
      "過的": 7718,
      "道路": 7719,
      "避凶": 7720,
      "避開": 7721,
      "郵件": 7722,
      "金黃": 7723,
      "鈴薯": 7724,
      "鉛筆的": 7725,
      "鋒利": 7726,
      "長短": 7727,
      "開來": 7728,
      "開創": 7729,
      "開墾": 7730,
      "開採": 7731,
      "開關": 7732,
      "降噪": 7733,
      "降溫": 7734,
      "隕石": 7735,
      "隨之": 7736,
      "隱藏": 7737,
      "雙手": 7738,
      "難度": 7739,
      "電費": 7740,
      "電路": 7741,
      "靈長": 7742,
      "面料": 7743,
      "鞋子": 7744,
      "頁岩": 7745,
      "顯得": 7746,
      "風量": 7747,
      "馬鈴薯": 7748,
      "驚人的": 7749,
      "體長約": 7750,
      "鬍鬚": 7751,
      "魚類": 7752,
      "鹹香": 7753,
      "鹽酥雞": 7754,
      "黃金": 7755,
      "雖然塑膠": 7756,
      "雖然偶爾": 7757,
      "因為人們對": 7758,
      "因為二戰後": 7759,
      "所以無論是": 7760,
      "價格可能": 7761,
      "價格稍高": 7762,
      "為什麼傳統的": 7763,
      "為什麼臭豆腐": 7764,
      "為什麼經常": 7765,
      "為什麼日月潭": 7766,
      "台灣人": 7767,
      "台灣在地": 7768,
      "台灣明珠": 7769,
      "使用體驗": 7770,
      "當時美國": 7771,
      "主要是因為": 7772,
      "主要取決於": 7773,
      "主要服務": 7774,
      "選擇時": 7775,
      "為了追求": 7776,
      "技術已經": 7777,
      "技術成熟": 7778,
      "但是它們": 7779,
      "現代鑰匙": 7780,
      "通常落在": 7781,
      "許多廠商": 7782,
      "許多人的": 7783,
      "非常具有": 7784,
      "非常多元": 7785,
      "重要性": 7786,
      "成為可能": 7787,
      "牠們優雅": 7788,
      "開始使用": 7789,
      "逐漸受到": 7790,
      "逐漸演化出": 7791,
      "人們相信": 7792,
      "容易讓人": 7793,
      "容易產生": 7794,
      "普及化": 7795,
      "隨著技術進步": 7796,
      "生活水平": 7797,
      "文化和": 7798,
      "文化傳承": 7799,
      "文化符號": 7800,
      "相對較低": 7801,
      "成分的": 7802,
      "成分主要是": 7803,
      "198": 7804,
      "1990年代": 7805,
      "甚至超過": 7806,
      "影響著": 7807,
      "製作的": 7808,
      "製作工藝": 7809,
      "目前的": 7810,
      "目前市售": 7811,
      "從幾百元到": 7812,
      "受到限制": 7813,
      "安全感": 7814,
      "其實並非": 7815,
      "值得的": 7816,
      "差異在哪裡": 7817,
      "它的主要成分是": 7818,
      "讓人聯想到": 7819,
      "擁有獨特的": 7820,
      "這麼長": 7821,
      "這麼多種": 7822,
      "元到數百元不等": 7823,
      "保護眼睛": 7824,
      "真的令人": 7825,
      "效率更高": 7826,
      "家用路由器": 7827,
      "的價格範圍": 7828,
      "演變出": 7829,
      "更多元": 7830,
      "台灣的明珠": 7831,
      "如果只是": 7832,
      "實用性和": 7833,
      "產品的": 7834,
      "能有效減少": 7835,
      "為什麼會被": 7836,
      "最早是": 7837,
      "生態價值": 7838,
      "市場需求": 7839,
      "大幅下降": 7840,
      "大幅縮短了": 7841,
      "色彩鮮豔": 7842,
      "金屬或": 7843,
      "之所以被譽為": 7844,
      "發展出各種": 7845,
      "為何蘋果": 7846,
      "的發展可追溯到": 7847,
      "的重要因素": 7848,
      "發明家": 7849,
      "限制了": 7850,
      "古代中國": 7851,
      "機車在台灣": 7852,
      "數量銳減": 7853,
      "的美感": 7854,
      "儲存資料": 7855,
      "如何判斷": 7856,
      "經濟效益": 7857,
      "公尺以上": 7858,
      "有什麼樣的": 7859,
      "有什麼關鍵": 7860,
      "習慣使用": 7861,
      "應用到": 7862,
      "也更能": 7863,
      "普遍採用": 7864,
      "數位相機的": 7865,
      "的歷史可追溯到": 7866,
      "科學發展": 7867,
      "視覺體驗": 7868,
      "視覺上的": 7869,
      "難以抗拒": 7870,
      "公車路線": 7871,
      "數據儲存": 7872,
      "數據傳輸": 7873,
      "森林中": 7874,
      "添加了": 7875,
      "中秋節": 7876,
      "也是一種": 7877,
      "書寫體驗": 7878,
      "很大程度": 7879,
      "環保意識抬頭": 7880,
      "上千元之間": 7881,
      "是個不錯的選擇": 7882,
      "更能感受到": 7883,
      "螢幕尺寸": 7884,
      "萬元左右": 7885,
      "造型的": 7886,
      "確實能": 7887,
      "使用的是": 7888,
      "大型檔案": 7889,
      "中秋餅圓圓的": 7890,
      "的使用壽命": 7891,
      "Q彈的": 7892,
      "變得更加": 7893,
      "解決方案": 7894,
      "所以逐漸取代了": 7895,
      "幾百元": 7896,
      "柔軟舒適": 7897,
      "保鮮盒": 7898,
      "表達心意": 7899,
      "電動刮鬍刀": 7900,
      "農曆春": 7901,
      "日月潭之所以能": 7902,
      "維護成本": 7903,
      "美味的": 7904,
      "台灣黑熊的": 7905,
      "奠定了基礎": 7906,
      "雖然傳統上": 7907,
      "5000mAh": 7908,
      "競爭力": 7909,
      "同時也": 7910,
      "提供了一個": 7911,
      "保暖性": 7912,
      "力量與": 7913,
      "目的是什麼": 7914,
      "出現了許多": 7915,
      "普渡儀式": 7916,
      "總能感受到": 7917,
      "原本是": 7918,
      "投入大量": 7919,
      "被廣泛使用": 7920,
      "小時制": 7921,
      "的故事要從": 7922,
      "越高代表": 7923,
      "人們開始追求更": 7924,
      "震撼人心": 7925,
      "人工繁殖": 7926,
      "斑馬身": 7927,
      "因為人們相信": 7928,
      "成為主流選擇": 7929,
      "等因素影響": 7930,
      "真的很方便": 7931,
      "兼顧了": 7932,
      "家用血壓計的": 7933,
      "保濕成分": 7934,
      "噴墨印表機的": 7935,
      "目標是": 7936,
      "平民美食": 7937,
      "海洋生物": 7938,
      "價格也相對較高": 7939,
      "國民政府": 7940,
      "端午節吃": 7941,
      "在現代社會": 7942,
      "完美結合": 7943,
      "逐漸普及到": 7944,
      "扮演著重要的角色": 7945,
      "雖然有些人可能": 7946,
      "個性化": 7947,
      "的美食之一": 7948,
      "可靠的": 7949,
      "瓦特改良": 7950,
      "重複使用": 7951,
      "難忘的回憶": 7952,
      "找到最適合自己的": 7953,
      "找到最符合自己": 7954,
      "污染物": 7955,
      "消化系統": 7956,
      "過敏反應": 7957,
      "彎曲的機翼": 7958,
      "刺激性": 7959,
      "極佳的": 7960,
      "理論上": 7961,
      "聚集地": 7962,
      "熟悉的": 7963,
      "長方形信封": 7964,
      "摩擦力": 7965,
      "數萬元都有": 7966,
      "省下不少": 7967,
      "今日的": 7968,
      "聯名款": 7969,
      "高出許多": 7970,
      "人民幣": 7971,
      "光學顯微鏡": 7972,
      "很久以前": 7973,
      "觀看影片": 7974,
      "最初設計的目標": 7975,
      "外酥內嫩的口感": 7976,
      "Intel": 7977,
      "單程票價": 7978,
      "小孩或": 7979,
      "防腐劑": 7980,
      "失去了": 7981,
      "客家移民": 7982,
      "飽和度": 7983,
      "菲律賓海板塊隱沒": 7984,
      "當季盛產的": 7985,
      "長頸鹿的脖子": 7986,
      "Nike": 7987,
      "抽取式面紙": 7988,
      "最棒的地方": 7989,
      "雖然選擇眾多": 7990,
      "CADR值": 7991,
      "Kobo": 7992,
      "Model": 7993,
      "各行各業": 7994,
      "嘆為觀止": 7995,
      "愛爾蘭": 7996,
      "歸類為": 7997,
      "近距離觀察": 7998,
      "為什麼日月潭會被稱為": 7999,
      "生活水平提高": 8000,
      "%-": 8001,
      ")?": 8002,
      ")。": 8003,
      "11": 8004,
      "180": 8005,
      "160": 8006,
      "250": 8007,
      "38": 8008,
      "3952公尺": 8009,
      "9年": 8010,
      "AT": 8011,
      "Gbps": 8012,
      "Le": 8013,
      "MB": 8014,
      "NT": 8015,
      "Pro": 8016,
      "Pla": 8017,
      "Ra": 8018,
      "Rob": 8019,
      "SA": 8020,
      "ic": 8021,
      "lar": 8022,
      "ms": 8023,
      "ub": 8024,
      "一代": 8025,
      "一層": 8026,
      "一席": 8027,
      "一條": 8028,
      "一生": 8029,
      "一號": 8030,
      "上元": 8031,
      "上有": 8032,
      "上漲": 8033,
      "上色": 8034,
      "上會有": 8035,
      "不勝": 8036,
      "不常": 8037,
      "不得": 8038,
      "不應": 8039,
      "不變": 8040,
      "不一定": 8041,
      "且容量": 8042,
      "且價格親民": 8043,
      "並將": 8044,
      "也因": 8045,
      "也常": 8046,
      "也成為": 8047,
      "也越來越": 8048,
      "也很大": 8049,
      "互相": 8050,
      "五千": 8051,
      "人力": 8052,
      "人間": 8053,
      "什米": 8054,
      "仍具備": 8055,
      "以下": 8056,
      "以確保": 8057,
      "但也": 8058,
      "但許多": 8059,
      "但仍有": 8060,
      "但到了": 8061,
      "但相較於": 8062,
      "住宅": 8063,
      "佛教": 8064,
      "你會": 8065,
      "便成為": 8066,
      "倍數": 8067,
      "傳入": 8068,
      "價比": 8069,
      "優美": 8070,
      "優質": 8071,
      "元起跳": 8072,
      "克一號": 8073,
      "入手": 8074,
      "全台": 8075,
      "全身": 8076,
      "兩個": 8077,
      "共享": 8078,
      "再到": 8079,
      "再生": 8080,
      "冰品": 8081,
      "冷凝": 8082,
      "凸顯": 8083,
      "出的": 8084,
      "利息": 8085,
      "利昂": 8086,
      "刮傷": 8087,
      "到數百": 8088,
      "到上百": 8089,
      "到旗艦機": 8090,
      "刷牙": 8091,
      "剩餘": 8092,
      "劃分": 8093,
      "劇烈": 8094,
      "包覆": 8095,
      "北方": 8096,
      "匱乏": 8097,
      "十幾": 8098,
      "協助": 8099,
      "即時": 8100,
      "厚度和": 8101,
      "去污": 8102,
      "去骨": 8103,
      "取現金": 8104,
      "受熱": 8105,
      "口袋": 8106,
      "只需": 8107,
      "各個": 8108,
      "含水量": 8109,
      "吸濕": 8110,
      "和設計": 8111,
      "和金屬": 8112,
      "和配料": 8113,
      "和展示": 8114,
      "問世": 8115,
      "喀什米": 8116,
      "單調": 8117,
      "圓滿": 8118,
      "團圓的": 8119,
      "在早期": 8120,
      "在許多": 8121,
      "地圖": 8122,
      "地板": 8123,
      "坐姿": 8124,
      "基督": 8125,
      "塑造": 8126,
      "外鍋": 8127,
      "大增": 8128,
      "大理": 8129,
      "大賓": 8130,
      "大約落在新台幣": 8131,
      "失真": 8132,
      "奇想": 8133,
      "媒介": 8134,
      "存在於": 8135,
      "季節": 8136,
      "孩子": 8137,
      "學校": 8138,
      "它來": 8139,
      "它成為": 8140,
      "它作為": 8141,
      "它不像": 8142,
      "完工": 8143,
      "完成": 8144,
      "宗教": 8145,
      "定義": 8146,
      "宣稱": 8147,
      "寫字": 8148,
      "將糯米腸": 8149,
      "專利": 8150,
      "小米": 8151,
      "少數": 8152,
      "就在於": 8153,
      "尼克一號": 8154,
      "居民": 8155,
      "山羊": 8156,
      "已是": 8157,
      "布袋": 8158,
      "常用": 8159,
      "平靜": 8160,
      "年費": 8161,
      "幹線": 8162,
      "座椅": 8163,
      "廠牌": 8164,
      "延遲": 8165,
      "弧形": 8166,
      "很方便": 8167,
      "後會": 8168,
      "從早期": 8169,
      "微小": 8170,
      "微米": 8171,
      "心式": 8172,
      "心臟": 8173,
      "性格": 8174,
      "性價比": 8175,
      "情緒": 8176,
      "意味": 8177,
      "感動": 8178,
      "感恩": 8179,
      "憨態": 8180,
      "成就": 8181,
      "成立": 8182,
      "成鬼": 8183,
      "我很喜歡": 8184,
      "或低": 8185,
      "或無": 8186,
      "或金屬": 8187,
      "房間": 8188,
      "手作": 8189,
      "手工藝": 8190,
      "才真正": 8191,
      "才不會": 8192,
      "扶手": 8193,
      "抑制": 8194,
      "抬升": 8195,
      "抵抗": 8196,
      "抽水": 8197,
      "拜拜": 8198,
      "指出": 8199,
      "掩蓋": 8200,
      "損傷": 8201,
      "摺疊": 8202,
      "操控": 8203,
      "據估計": 8204,
      "擴大": 8205,
      "改名為": 8206,
      "散發出": 8207,
      "文創": 8208,
      "斯普": 8209,
      "新生": 8210,
      "於200": 8211,
      "旅程": 8212,
      "日落": 8213,
      "早年": 8214,
      "春水": 8215,
      "是在": 8216,
      "是無": 8217,
      "是非常": 8218,
      "是其他": 8219,
      "是主流": 8220,
      "時速": 8221,
      "智能": 8222,
      "更大": 8223,
      "更輕": 8224,
      "更長": 8225,
      "更適合": 8226,
      "更快速": 8227,
      "更符合": 8228,
      "更精確": 8229,
      "更先進": 8230,
      "最深": 8231,
      "最為": 8232,
      "會受到": 8233,
      "會造成": 8234,
      "月台": 8235,
      "有線": 8236,
      "有更多": 8237,
      "期待": 8238,
      "期存款": 8239,
      "本土": 8240,
      "松樹": 8241,
      "板材": 8242,
      "桃符": 8243,
      "棉布": 8244,
      "模樣": 8245,
      "模糊": 8246,
      "樹枝": 8247,
      "權力": 8248,
      "欲罷": 8249,
      "正面": 8250,
      "正月十五": 8251,
      "武器": 8252,
      "每家": 8253,
      "每小時": 8254,
      "氟利昂": 8255,
      "水或": 8256,
      "水準": 8257,
      "水銀": 8258,
      "水中的": 8259,
      "油污": 8260,
      "法國": 8261,
      "活塞": 8262,
      "消暑": 8263,
      "液體": 8264,
      "液體燃料": 8265,
      "淋上": 8266,
      "淡淡": 8267,
      "溫柔": 8268,
      "滿目": 8269,
      "演算法": 8270,
      "漫長的": 8271,
      "潛水": 8272,
      "濕氣": 8273,
      "瀕臨": 8274,
      "為台灣": 8275,
      "為單位": 8276,
      "煉乳": 8277,
      "煤礦": 8278,
      "熱度": 8279,
      "熱風": 8280,
      "燉煮": 8281,
      "燒焦": 8282,
      "特徵": 8283,
      "特製的": 8284,
      "犧牲": 8285,
      "琳瑯": 8286,
      "用量": 8287,
      "留意": 8288,
      "登頂": 8289,
      "發聲": 8290,
      "發霉": 8291,
      "發紅包": 8292,
      "白天": 8293,
      "百姓": 8294,
      "的手": 8295,
      "的格": 8296,
      "的風格": 8297,
      "的時代": 8298,
      "的生產": 8299,
      "的考量": 8300,
      "的種類": 8301,
      "的使用者": 8302,
      "的工作": 8303,
      "的角色": 8304,
      "的習俗": 8305,
      "的造型": 8306,
      "的售價": 8307,
      "的平均": 8308,
      "的鏡片": 8309,
      "的成功": 8310,
      "的動力": 8311,
      "的關係": 8312,
      "的比例": 8313,
      "的寵物": 8314,
      "的風險": 8315,
      "的優雅": 8316,
      "的朋友": 8317,
      "的供品": 8318,
      "的絕佳": 8319,
      "目光": 8320,
      "相容性": 8321,
      "知識": 8322,
      "石油": 8323,
      "破裂": 8324,
      "硝石": 8325,
      "硫化物": 8326,
      "礦物": 8327,
      "祝山": 8328,
      "禁止": 8329,
      "秋季": 8330,
      "穿鞋": 8331,
      "突然": 8332,
      "突變": 8333,
      "站的": 8334,
      "童年": 8335,
      "竹纖維": 8336,
      "第一個": 8337,
      "等待": 8338,
      "等選擇": 8339,
      "等成分": 8340,
      "等特色": 8341,
      "筷子": 8342,
      "粉末": 8343,
      "精密": 8344,
      "純潔": 8345,
      "純白": 8346,
      "紙錢": 8347,
      "細纖維": 8348,
      "緊急": 8349,
      "總面積約": 8350,
      "織物": 8351,
      "繪圖": 8352,
      "美軍": 8353,
      "美元不等": 8354,
      "美不勝": 8355,
      "而開始": 8356,
      "耗時": 8357,
      "聲譽": 8358,
      "能大幅提升": 8359,
      "能營造": 8360,
      "能承受": 8361,
      "能更好地": 8362,
      "脖子的": 8363,
      "臨時": 8364,
      "自行車": 8365,
      "與功能": 8366,
      "與文化": 8367,
      "與一般": 8368,
      "與口感": 8369,
      "與香腸": 8370,
      "航運": 8371,
      "艱辛": 8372,
      "色調": 8373,
      "花粉等": 8374,
      "茂盛": 8375,
      "萬輛": 8376,
      "著迷": 8377,
      "蠟筆的": 8378,
      "被選": 8379,
      "被賦予了": 8380,
      "裁剪": 8381,
      "製冰": 8382,
      "複製": 8383,
      "褐色": 8384,
      "見到": 8385,
      "見證": 8386,
      "視野": 8387,
      "訂製": 8388,
      "訊息": 8389,
      "訓練": 8390,
      "評估": 8391,
      "說起": 8392,
      "調色": 8393,
      "識別": 8394,
      "警示": 8395,
      "變換": 8396,
      "變更": 8397,
      "讓它在": 8398,
      "豪華": 8399,
      "資產": 8400,
      "走向": 8401,
      "超級": 8402,
      "超細纖維": 8403,
      "趨向": 8404,
      "車道": 8405,
      "較短": 8406,
      "較長": 8407,
      "載體": 8408,
      "轉動": 8409,
      "轉速": 8410,
      "迷人的": 8411,
      "這就是": 8412,
      "通話": 8413,
      "通過": 8414,
      "速率": 8415,
      "進而": 8416,
      "遊船": 8417,
      "運營": 8418,
      "運用於": 8419,
      "過高的": 8420,
      "道教": 8421,
      "避震": 8422,
      "還會": 8423,
      "那個": 8424,
      "邪避凶": 8425,
      "都採用": 8426,
      "配偶": 8427,
      "重達": 8428,
      "金鑽": 8429,
      "鈣質": 8430,
      "鈦合金": 8431,
      "鎖具": 8432,
      "長出": 8433,
      "門口": 8434,
      "門檻": 8435,
      "開工": 8436,
      "關聯": 8437,
      "防潮": 8438,
      "防禦": 8439,
      "降解": 8440,
      "陰間": 8441,
      "電流": 8442,
      "靈感": 8443,
      "靈敏": 8444,
      "靈活性": 8445,
      "靠背": 8446,
      "面板": 8447,
      "鞋款": 8448,
      "韓國": 8449,
      "韻味": 8450,
      "預期": 8451,
      "風光": 8452,
      "風情": 8453,
      "颱風": 8454,
      "飼主": 8455,
      "餅乾": 8456,
      "餐具": 8457,
      "香甜": 8458,
      "騎馬": 8459,
      "驅邪避凶": 8460,
      "高聳": 8461,
      "高畫素": 8462,
      "高密度聚乙烯": 8463,
      "高單翼": 8464,
      "鹼性": 8465,
      "麻辣": 8466,
      "黏貼": 8467,
      "雖然在": 8468,
      "雖然高": 8469,
      "雖然這些": 8470,
      "雖然這個": 8471,
      "雖然傳統的": 8472,
      "雖然起初": 8473,
      "因為他": 8474,
      "因為這": 8475,
      "因為初期": 8476,
      "因為糯米腸": 8477,
      "所以吸引了": 8478,
      "所以很快": 8479,
      "所以廠商開始嘗試": 8480,
      "價格和": 8481,
      "價格會": 8482,
      "價格便宜": 8483,
      "價格約為": 8484,
      "價格相對便宜": 8485,
      "價格波動": 8486,
      "現在則": 8487,
      "現在很多": 8488,
      "早期火箭": 8489,
      "早期筆記型電腦": 8490,
      "個人風格的": 8491,
      "個人喜好": 8492,
      "為什麼有": 8493,
      "台灣藍鵲": 8494,
      "台灣芒果冰": 8495,
      "使用習慣": 8496,
      "使用感受": 8497,
      "我個人很推薦": 8498,
      "主要為": 8499,
      "主要用": 8500,
      "主要考量": 8501,
      "主要針對": 8502,
      "主要集中": 8503,
      "主要依靠": 8504,
      "發展息息相關": 8505,
      "選擇性": 8506,
      "可以讓": 8507,
      "可以達到": 8508,
      "技術的發展": 8509,
      "但是現代": 8510,
      "但是這種": 8511,
      "但是後來": 8512,
      "但是由於": 8513,
      "我個人覺得用": 8514,
      "我個人覺得這種": 8515,
      "成本與": 8516,
      "成本高": 8517,
      "成本很高": 8518,
      "傳統文化的": 8519,
      "現代紙箱": 8520,
      "功能上": 8521,
      "非常高": 8522,
      "牠們是": 8523,
      "方便使用者": 8524,
      "最初的設計": 8525,
      "最初只是": 8526,
      "逐漸演變為": 8527,
      "提升空間": 8528,
      "人們對於": 8529,
      "市面上的": 8530,
      "市面上常見的": 8531,
      "容易導致": 8532,
      "環境和": 8533,
      "環境改變": 8534,
      "可能導致": 8535,
      "生活態": 8536,
      "生活的": 8537,
      "有些還": 8538,
      "有些強調": 8539,
      "有些地方": 8540,
      "000mAh": 8541,
      "雖然現在市面上": 8542,
      "甚至是": 8543,
      "甚至有些": 8544,
      "甚至上千": 8545,
      "影響價格": 8546,
      "系統的": 8547,
      "製作過程中": 8548,
      "製作特色在於": 8549,
      "歷史的": 8550,
      "食物的": 8551,
      "食物鏈": 8552,
      "從幾十到": 8553,
      "不僅美觀": 8554,
      "其實和": 8555,
      "其實很": 8556,
      "值得投資": 8557,
      "出現的": 8558,
      "品牌而異": 8559,
      "品牌形象": 8560,
      "差異在於": 8561,
      "這些問題": 8562,
      "現在市面上各式各樣的": 8563,
      "它的獨特": 8564,
      "508": 8565,
      "擁有的": 8566,
      "擁有超過": 8567,
      "2010": 8568,
      "早期的電風扇": 8569,
      "好的選擇": 8570,
      "常見的選擇": 8571,
      "真的很有": 8572,
      "增加風味": 8573,
      "材料科學": 8574,
      "如此繁多": 8575,
      "更多細節": 8576,
      "如果想": 8577,
      "數百元": 8578,
      "能有效改善": 8579,
      "搭配上": 8580,
      "搭配泡菜": 8581,
      "的設計演變": 8582,
      "這個問題": 8583,
      "已經成為": 8584,
      "已經足夠": 8585,
      "市場上的": 8586,
      "牠們的存在": 8587,
      "導致了": 8588,
      "大幅減少": 8589,
      "大幅縮小": 8590,
      "速度快": 8591,
      "越來越受歡迎": 8592,
      "越來越輕薄": 8593,
      "塑膠外殼": 8594,
      "建議大家": 8595,
      "一定會": 8596,
      "廣泛使用": 8597,
      "生產成本降低": 8598,
      "但隨著時代": 8599,
      "後來演變成": 8600,
      "的重要指標": 8601,
      "健康狀況": 8602,
      "尤其適合": 8603,
      "人類與": 8604,
      "持續不斷": 8605,
      "持續投入": 8606,
      "包含了": 8607,
      "但它在": 8608,
      "30年代": 8609,
      "相當於": 8610,
      "相當可觀": 8611,
      "儲存裝置": 8612,
      "吸引大量": 8613,
      "才能維持": 8614,
      "電子鍋": 8615,
      "電子溫度計": 8616,
      "便利性和": 8617,
      "嘗試不同": 8618,
      "200元之間": 8619,
      "20000mAh": 8620,
      "那種酸甜交織": 8621,
      "代表著台灣": 8622,
      "代表著團圓": 8623,
      "天然的": 8624,
      "天然植物": 8625,
      "普遍是": 8626,
      "普遍認為": 8627,
      "阿里山日出": 8628,
      "數位攝影": 8629,
      "的歷史氛圍": 8630,
      "中國古代": 8631,
      "無法滿足": 8632,
      "無法接受": 8633,
      "主要成分是糯米": 8634,
      "希望透過": 8635,
      "添加劑": 8636,
      "雖然現代人": 8637,
      "都能輕鬆": 8638,
      "除濕機的": 8639,
      "高度的": 8640,
      "最早的溫度計": 8641,
      "萬元以上": 8642,
      "大眾化": 8643,
      "便宜的": 8644,
      "我個人推薦大家": 8645,
      "旅行時": 8646,
      "起源於中國": 8647,
      "迅速普及": 8648,
      "不可或缺的好幫手": 8649,
      "定期更換": 8650,
      "誕生於": 8651,
      "娛樂設施": 8652,
      "一定要試試看": 8653,
      "一次性": 8654,
      "售價約": 8655,
      "源自於早期": 8656,
      "平板電腦的發展歷程中": 8657,
      "品種的": 8658,
      "本身就是": 8659,
      "購買時": 8660,
      "電池技術": 8661,
      "20世紀80年代": 8662,
      "20世紀50年代": 8663,
      "櫻花鉤吻鮭會被": 8664,
      "USB隨身碟的": 8665,
      "電動牙刷": 8666,
      "上百元都有": 8667,
      "實際上": 8668,
      "實際使用": 8669,
      "成為台灣最具代表性的": 8670,
      "更容易被": 8671,
      "飛行員": 8672,
      "飛行能力": 8673,
      "為什麼現在的筆記型電腦": 8674,
      "之所以能成為": 8675,
      "這裡的": 8676,
      "玻璃瓶裝": 8677,
      "幾乎都是": 8678,
      "是如何產生的": 8679,
      "雖然現在有其他": 8680,
      "商業活動": 8681,
      "是否有": 8682,
      "澳洲的": 8683,
      "工業革命後": 8684,
      "回收率": 8685,
      "成功地": 8686,
      "潮流文化中心": 8687,
      "祖先和": 8688,
      "幫助我們": 8689,
      "積極開發": 8690,
      "讓人感到放鬆": 8691,
      "創造出獨特的": 8692,
      "外皮酥脆": 8693,
      "建築風格": 8694,
      "數百萬美元": 8695,
      "很有趣": 8696,
      "海豚被認為是": 8697,
      "混合物": 8698,
      "熊貓倉鼠": 8699,
      "至今仍": 8700,
      "智慧型手機市場": 8701,
      "和服的圖案": 8702,
      "時尚感": 8703,
      "活性炭": 8704,
      "厚重的": 8705,
      "會這麼多樣化": 8706,
      "會這麼受歡迎": 8707,
      "移動的": 8708,
      "酥脆的": 8709,
      "酥脆的外皮": 8710,
      "包裹著": 8711,
      "推動了": 8712,
      "溫馨氛圍": 8713,
      "12小時制": 8714,
      "透氣性和": 8715,
      "特別是在": 8716,
      "郵輪旅行的": 8717,
      "增添了": 8718,
      "水分流失": 8719,
      "等級的": 8720,
      "觸感和": 8721,
      "釘書機的": 8722,
      "人們開始尋找": 8723,
      "才開始有": 8724,
      "竹子為食": 8725,
      "雕刻成鬼": 8726,
      "大部分人": 8727,
      "尋找食物": 8728,
      "木薯粉圓的": 8729,
      "人工清掃": 8730,
      "懷舊感": 8731,
      "懷舊氛圍": 8732,
      "新鮮度": 8733,
      "有趣的": 8734,
      "扮演了什麼": 8735,
      "生命的": 8736,
      "融入了": 8737,
      "雄獅鬃毛": 8738,
      "值得一訪": 8739,
      "室內濕度": 8740,
      "氣候變化": 8741,
      "氣候變遷": 8742,
      "自身需求": 8743,
      "韓服的色彩": 8744,
      "便攜性": 8745,
      "大多數": 8746,
      "傾斜式": 8747,
      "收藏價值": 8748,
      "第一代": 8749,
      "佔據市場": 8750,
      "印象深刻": 8751,
      "吉祥物": 8752,
      "愉悅感": 8753,
      "一碗好吃的": 8754,
      "吹風機的": 8755,
      "看似簡單": 8756,
      "續航里程": 8757,
      "金融卡": 8758,
      "有哪些關鍵轉變": 8759,
      "尚未成熟": 8760,
      "我推薦大家可以": 8761,
      "許多店家會加入": 8762,
      "珍貴的": 8763,
      "長輩或": 8764,
      "現在我們看到的": 8765,
      "價格從幾十到數百元不等": 8766,
      "外酥內軟": 8767,
      "崛起與": 8768,
      "羽絨枕": 8769,
      "當時是為了保存": 8770,
      "台北市區": 8771,
      "乳膠床墊": 8772,
      "元台幣左右": 8773,
      "軍事用途": 8774,
      "製造商開始": 8775,
      "令人驚豔": 8776,
      "可愛的外表": 8777,
      "不妨多": 8778,
      "最高峰": 8779,
      "歷經多次": 8780,
      "的山景": 8781,
      "認證的": 8782,
      "為何會經歷": 8783,
      "價格從幾千到數萬元不等": 8784,
      "經濟實惠的": 8785,
      "寒冷的": 8786,
      "融合了": 8787,
      "雷射印表機": 8788,
      "行動電源的容量大小": 8789,
      "25年": 8790,
      "承載著": 8791,
      "的身姿": 8792,
      "的家庭來說": 8793,
      "複合材料": 8794,
      "186萬件": 8795,
      "敬意與": 8796,
      "理念是什麼": 8797,
      "現代腳踏車的發展歷程中": 8798,
      "特斯拉電動車的": 8799,
      "也要注意": 8800,
      "緊密相連": 8801,
      "在中國文化中": 8802,
      "常綠植物": 8803,
      "瀏覽網頁": 8804,
      "的海景": 8805,
      "鳳梨酥的內餡": 8806,
      "尤加利葉": 8807,
      "拋棄式": 8808,
      "石灰岩": 8809,
      "行星撞擊": 8810,
      "讓更多人能": 8811,
      "限量版": 8812,
      "香菇等": 8813,
      "如果預算足夠": 8814,
      "不一定要追求": 8815,
      "入山許可": 8816,
      "在歐亞板塊之下": 8817,
      "硫酸鹽": 8818,
      "而發展出來的": 8819,
      "金絲熊貓倉鼠": 8820,
      "家用冷氣機的發展歷程中": 8821,
      "食材取得不易": 8822,
      "但我還是": 8823,
      "北歐風": 8824,
      "呼嚕聲": 8825,
      "破碎化": 8826,
      "突發奇想": 8827,
      "農曆春節的": 8828,
      "日月潭之所以能享有": 8829,
      "ATM": 8830,
      "一席之地": 8831,
      "去骨雞腿肉": 8832,
      "喀什米爾": 8833,
      "斯普尼克一號": 8834,
      "春水堂": 8835,
      "欲罷不能": 8836,
      "美不勝收": 8837,
      "金鑽鳳梨": 8838,
      "2010年": 8839,
      "%。": 8840,
      "13": 8841,
      "1萬": 8842,
      "130": 8843,
      "3500": 8844,
      "5年": 8845,
      "79": 8846,
      "700": 8847,
      "747": 8848,
      "8GB": 8849,
      "Bí": 8850,
      "Clar": 8851,
      "FSD": 8852,
      "Fla": 8853,
      "GS": 8854,
      "N95": 8855,
      "PP": 8856,
      "PU": 8857,
      "ala": 8858,
      "ng": 8859,
      "ró": 8860,
      "ss": 8861,
      "st": 8862,
      "ung": 8863,
      "”。": 8864,
      "、「": 8865,
      "」(": 8866,
      "」、「": 8867,
      "一大": 8868,
      "一天": 8869,
      "一家": 8870,
      "一對": 8871,
      "一捲": 8872,
      "一段": 8873,
      "一公斤": 8874,
      "一家人": 8875,
      "三分": 8876,
      "三星": 8877,
      "上升": 8878,
      "上看": 8879,
      "上活動": 8880,
      "上表現": 8881,
      "不太": 8882,
      "不容": 8883,
      "不用": 8884,
      "不論": 8885,
      "並增加": 8886,
      "並發展出": 8887,
      "中東": 8888,
      "中加入": 8889,
      "中高階": 8890,
      "主峰": 8891,
      "主打": 8892,
      "主題": 8893,
      "之王": 8894,
      "之路": 8895,
      "也跟": 8896,
      "也較為": 8897,
      "了這": 8898,
      "事故": 8899,
      "二戰時期": 8900,
      "亡魂": 8901,
      "交流": 8902,
      "亮點": 8903,
      "人口": 8904,
      "人將": 8905,
      "仍以": 8906,
      "仍會": 8907,
      "仍能": 8908,
      "以南": 8909,
      "任何": 8910,
      "企業": 8911,
      "伏擊": 8912,
      "伯特": 8913,
      "但當時": 8914,
      "但目前": 8915,
      "但現在市面上": 8916,
      "但機車": 8917,
      "但傳統的": 8918,
      "但如今": 8919,
      "但普渡": 8920,
      "但只要": 8921,
      "但長期下來": 8922,
      "位元": 8923,
      "位於": 8924,
      "低於": 8925,
      "低調": 8926,
      "佔總": 8927,
      "保險": 8928,
      "個小時": 8929,
      "們需要": 8930,
      "健行": 8931,
      "健身": 8932,
      "傳動": 8933,
      "傳導": 8934,
      "像現在": 8935,
      "億台幣": 8936,
      "儲藏": 8937,
      "克服": 8938,
      "兔子的": 8939,
      "入侵": 8940,
      "內鍋": 8941,
      "六角形": 8942,
      "再淋上": 8943,
      "冬至": 8944,
      "冰塊": 8945,
      "冷戰": 8946,
      "冷風": 8947,
      "冷戰時期": 8948,
      "凝結": 8949,
      "出了": 8950,
      "出色": 8951,
      "出現在": 8952,
      "分層": 8953,
      "分析": 8954,
      "初學者": 8955,
      "到1": 8956,
      "到現在的": 8957,
      "制度": 8958,
      "刷卡": 8959,
      "則可達": 8960,
      "力於": 8961,
      "功耗": 8962,
      "加劇": 8963,
      "努力": 8964,
      "勇氣": 8965,
      "動輒": 8966,
      "勝地": 8967,
      "化妝": 8968,
      "北京": 8969,
      "十塊到": 8970,
      "卓越": 8971,
      "印花": 8972,
      "危機": 8973,
      "卻步": 8974,
      "參加": 8975,
      "又能": 8976,
      "取用": 8977,
      "古典": 8978,
      "可掬": 8979,
      "可不是": 8980,
      "台中": 8981,
      "台鐵": 8982,
      "各類": 8983,
      "各品牌": 8984,
      "吊衫": 8985,
      "周長約": 8986,
      "命名為": 8987,
      "和對": 8988,
      "和蘇": 8989,
      "和顏色": 8990,
      "和儲存": 8991,
      "和希望": 8992,
      "和顏料": 8993,
      "和品味": 8994,
      "和祝福": 8995,
      "和胡椒": 8996,
      "哪個": 8997,
      "唯一": 8998,
      "商人": 8999,
      "啟動": 9000,
      "喚起": 9001,
      "喜慶": 9002,
      "單片": 9003,
      "單獨": 9004,
      "器材": 9005,
      "圈養": 9006,
      "圓潤": 9007,
      "在200": 9008,
      "在夜市": 9009,
      "在閱讀": 9010,
      "在日常生活中": 9011,
      "地景": 9012,
      "地面": 9013,
      "堅硬": 9014,
      "堆積": 9015,
      "堵塞": 9016,
      "塵埃": 9017,
      "增大": 9018,
      "多年": 9019,
      "多隻": 9020,
      "多功能": 9021,
      "多功能性": 9022,
      "夜晚": 9023,
      "夜景": 9024,
      "大大": 9025,
      "大概": 9026,
      "好好": 9027,
      "好看": 9028,
      "好處": 9029,
      "好很多": 9030,
      "好用的": 9031,
      "始終": 9032,
      "姿態": 9033,
      "威嚴": 9034,
      "字母": 9035,
      "存活": 9036,
      "孤魂": 9037,
      "它是": 9038,
      "它不僅能": 9039,
      "守護": 9040,
      "定型": 9041,
      "定時": 9042,
      "客戶": 9043,
      "室外": 9044,
      "家戶": 9045,
      "審美": 9046,
      "對人類": 9047,
      "小行星撞擊": 9048,
      "就開始": 9049,
      "尿酸": 9050,
      "層和": 9051,
      "峭壁": 9052,
      "峰頂": 9053,
      "州島": 9054,
      "巨木": 9055,
      "已有": 9056,
      "已超過": 9057,
      "已成為台灣": 9058,
      "帶到": 9059,
      "帶走": 9060,
      "平原": 9061,
      "幾毛": 9062,
      "廣為": 9063,
      "延伸": 9064,
      "強風": 9065,
      "彌補": 9066,
      "形的": 9067,
      "往復": 9068,
      "很推薦大家": 9069,
      "後再": 9070,
      "從平價": 9071,
      "微重力": 9072,
      "德國": 9073,
      "心曠": 9074,
      "快捷": 9075,
      "思考": 9076,
      "想像": 9077,
      "愉快": 9078,
      "意思": 9079,
      "意象": 9080,
      "愛文": 9081,
      "感染": 9082,
      "感謝": 9083,
      "成人": 9084,
      "成員": 9085,
      "成形": 9086,
      "成鳥": 9087,
      "或許": 9088,
      "或需要": 9089,
      "戰爭": 9090,
      "扇區": 9091,
      "手續": 9092,
      "手部": 9093,
      "才是": 9094,
      "才會": 9095,
      "打扮": 9096,
      "承重": 9097,
      "折射": 9098,
      "抹茶": 9099,
      "拉扯": 9100,
      "拿在手": 9101,
      "指紋": 9102,
      "掉線": 9103,
      "排骨": 9104,
      "控油": 9105,
      "描繪": 9106,
      "提前": 9107,
      "插座": 9108,
      "收入": 9109,
      "收縮": 9110,
      "改為": 9111,
      "政策": 9112,
      "教育": 9113,
      "敬畏": 9114,
      "整潔": 9115,
      "數超過": 9116,
      "文明": 9117,
      "文藝": 9118,
      "斧神": 9119,
      "新月": 9120,
      "明確": 9121,
      "昏暗": 9122,
      "易用": 9123,
      "是怎麼": 9124,
      "是皇帝": 9125,
      "時可以": 9126,
      "景深": 9127,
      "暴增": 9128,
      "曝光": 9129,
      "更像是": 9130,
      "更柔軟": 9131,
      "更注重": 9132,
      "更輕便": 9133,
      "更清晰": 9134,
      "更多樣化的": 9135,
      "更堅固": 9136,
      "更小的": 9137,
      "最重要的": 9138,
      "最重要的是": 9139,
      "會覺得": 9140,
      "會回到": 9141,
      "會散發出": 9142,
      "有的": 9143,
      "有不同": 9144,
      "有各種": 9145,
      "有很大的": 9146,
      "有小孩或": 9147,
      "本州島": 9148,
      "果醬": 9149,
      "枯竭": 9150,
      "查詢": 9151,
      "校正": 9152,
      "桉樹": 9153,
      "極具": 9154,
      "構造": 9155,
      "標本": 9156,
      "正確": 9157,
      "步驟": 9158,
      "每兩": 9159,
      "每秒": 9160,
      "每隻": 9161,
      "比一般": 9162,
      "氣勢": 9163,
      "氣墊": 9164,
      "氣質": 9165,
      "水壩": 9166,
      "水溫": 9167,
      "水裡": 9168,
      "沉重": 9169,
      "沿途": 9170,
      "法規": 9171,
      "波音": 9172,
      "活期存款": 9173,
      "流動": 9174,
      "流通": 9175,
      "海地區": 9176,
      "淡水": 9177,
      "淨化": 9178,
      "深層": 9179,
      "深深": 9180,
      "淵源於": 9181,
      "溫潤": 9182,
      "滷汁": 9183,
      "滾珠": 9184,
      "滾筒": 9185,
      "漂亮": 9186,
      "激發": 9187,
      "濃密的": 9188,
      "災難": 9189,
      "炸皮": 9190,
      "為手機": 9191,
      "為新台幣": 9192,
      "烘乾": 9193,
      "熱情": 9194,
      "熱茶": 9195,
      "爬行": 9196,
      "牙齦": 9197,
      "牛腱": 9198,
      "牢固": 9199,
      "物理": 9200,
      "狀肢": 9201,
      "玉米": 9202,
      "王龍": 9203,
      "玻尿酸": 9204,
      "球鞋": 9205,
      "生的": 9206,
      "用料": 9207,
      "用起來": 9208,
      "男士": 9209,
      "留下": 9210,
      "番茄": 9211,
      "當然": 9212,
      "發布": 9213,
      "發放": 9214,
      "發熱": 9215,
      "的確": 9216,
      "的風": 9217,
      "的人們": 9218,
      "的年代": 9219,
      "的效率": 9220,
      "的空間": 9221,
      "的智慧": 9222,
      "的食材": 9223,
      "的溫度": 9224,
      "的口味": 9225,
      "的工藝": 9226,
      "的剪刀": 9227,
      "的春聯": 9228,
      "的鳥類": 9229,
      "的強度": 9230,
      "的組合": 9231,
      "的樂趣": 9232,
      "的印象": 9233,
      "的祝福": 9234,
      "的結果": 9235,
      "的叫聲": 9236,
      "的製造成本": 9237,
      "的滋味": 9238,
      "的爆紅": 9239,
      "的茶館": 9240,
      "皮紙": 9241,
      "目的是": 9242,
      "直線": 9243,
      "直觀": 9244,
      "直觀的": 9245,
      "真皮": 9246,
      "真空": 9247,
      "石英": 9248,
      "矽水凝膠": 9249,
      "砍伐": 9250,
      "硬質": 9251,
      "碳粉": 9252,
      "碳纖維": 9253,
      "確立": 9254,
      "確認": 9255,
      "磁碟": 9256,
      "礦產": 9257,
      "社群": 9258,
      "神山": 9259,
      "神怡": 9260,
      "票證": 9261,
      "租金": 9262,
      "移至": 9263,
      "稀疏": 9264,
      "種植": 9265,
      "穿越": 9266,
      "窄軌": 9267,
      "竹林": 9268,
      "等地": 9269,
      "等方面": 9270,
      "等元素": 9271,
      "等優點": 9272,
      "米漿": 9273,
      "米色": 9274,
      "米白色": 9275,
      "粉狀": 9276,
      "精進": 9277,
      "糕餅": 9278,
      "糖分": 9279,
      "約重": 9280,
      "紙袋": 9281,
      "級的": 9282,
      "紛紛": 9283,
      "素材": 9284,
      "細膩": 9285,
      "編碼": 9286,
      "編號": 9287,
      "緩衝": 9288,
      "繁瑣": 9289,
      "缺點": 9290,
      "美元到": 9291,
      "羽色": 9292,
      "老化": 9293,
      "而這些": 9294,
      "而開發": 9295,
      "耐穿": 9296,
      "耐高溫": 9297,
      "耕社會": 9298,
      "耗費": 9299,
      "耗電": 9300,
      "聆聽": 9301,
      "聲名": 9302,
      "聲響": 9303,
      "聽到": 9304,
      "肉品": 9305,
      "能以": 9306,
      "能及": 9307,
      "能讓人": 9308,
      "能避免": 9309,
      "能延長": 9310,
      "能創造出": 9311,
      "能滿足不同": 9312,
      "自行": 9313,
      "致力於": 9314,
      "與人": 9315,
      "與其": 9316,
      "與台灣": 9317,
      "與設計": 9318,
      "與歷史": 9319,
      "興趣": 9320,
      "色溫": 9321,
      "若你": 9322,
      "茂密": 9323,
      "茶香": 9324,
      "菜色": 9325,
      "萃取": 9326,
      "萬至": 9327,
      "萬不等": 9328,
      "萬人次": 9329,
      "董車": 9330,
      "蒜頭": 9331,
      "蒸熟": 9332,
      "蓬裙": 9333,
      "蕪菁": 9334,
      "藉此": 9335,
      "蜂蠟": 9336,
      "蜜餞": 9337,
      "蜿蜒": 9338,
      "融化": 9339,
      "街道": 9340,
      "衝擊": 9341,
      "衝突": 9342,
      "裁切": 9343,
      "裡面": 9344,
      "襪子的": 9345,
      "襯衫": 9346,
      "西部": 9347,
      "規範": 9348,
      "覓食": 9349,
      "親眼": 9350,
      "親膚": 9351,
      "觀點": 9352,
      "角膜": 9353,
      "設有": 9354,
      "設立": 9355,
      "警惕": 9356,
      "讓其": 9357,
      "讓口感": 9358,
      "讓更多": 9359,
      "讓整體": 9360,
      "讓消費者": 9361,
      "豬五花肉": 9362,
      "負載": 9363,
      "貼心": 9364,
      "賣點": 9365,
      "贈送": 9366,
      "跑步": 9367,
      "身心": 9368,
      "軸心式": 9369,
      "較佳": 9370,
      "較好": 9371,
      "較弱": 9372,
      "較慢": 9373,
      "輸出": 9374,
      "轉彎": 9375,
      "農耕社會": 9376,
      "這讓": 9377,
      "逛夜市": 9378,
      "造紙": 9379,
      "遙遠": 9380,
      "遠超": 9381,
      "遮光": 9382,
      "避障": 9383,
      "都在": 9384,
      "都比較": 9385,
      "都十分": 9386,
      "都不一樣": 9387,
      "配合": 9388,
      "酥鬆": 9389,
      "酸鈉": 9390,
      "酸纖維": 9391,
      "醋酸纖維": 9392,
      "量產": 9393,
      "金黃色": 9394,
      "鉚釘": 9395,
      "鋼珠": 9396,
      "鏈條": 9397,
      "鐘聲": 9398,
      "鐘錶": 9399,
      "關懷": 9400,
      "阻礙": 9401,
      "陡峭": 9402,
      "陸續": 9403,
      "隆升": 9404,
      "隆起": 9405,
      "隔絕": 9406,
      "隨地": 9407,
      "雜物": 9408,
      "雪地": 9409,
      "需支付": 9410,
      "震盪": 9411,
      "霸王龍": 9412,
      "革新": 9413,
      "鞋子的": 9414,
      "韌性": 9415,
      "音質和": 9416,
      "項目": 9417,
      "預防": 9418,
      "頑固": 9419,
      "領取現金": 9420,
      "頸椎": 9421,
      "顆牙齒": 9422,
      "風嘴": 9423,
      "食性": 9424,
      "飽足": 9425,
      "養成": 9426,
      "饗宴": 9427,
      "駕馭": 9428,
      "驅逐": 9429,
      "骨董車": 9430,
      "高可達": 9431,
      "高效能": 9432,
      "鬼門": 9433,
      "鬼斧神": 9434,
      "鰭狀肢": 9435,
      "鹽水": 9436,
      "黃銅": 9437,
      "黏性": 9438,
      "黑暗": 9439,
      "龍紋": 9440,
      "雖然數位": 9441,
      "雖然味道": 9442,
      "雖然政府": 9443,
      "雖然兔子": 9444,
      "雖然看起來": 9445,
      "雖然北極熊": 9446,
      "雖然照顧": 9447,
      "因為鳳梨": 9448,
      "因為他們": 9449,
      "所以他": 9450,
      "所以對": 9451,
      "所以當時": 9452,
      "所以現代": 9453,
      "所以需要": 9454,
      "所以早期的": 9455,
      "價格相對": 9456,
      "價格自然": 9457,
      "價格大約在": 9458,
      "價格逐漸下降": 9459,
      "現在一個": 9460,
      "現在主流的": 9461,
      "早期設計": 9462,
      "早期路由器": 9463,
      "早期郵票": 9464,
      "早期飛機": 9465,
      "早期冷氣機": 9466,
      "早期隱形眼鏡": 9467,
      "早期觀星": 9468,
      "00年代": 9469,
      "個人化": 9470,
      "個人需求": 9471,
      "個人而言": 9472,
      "為什麼是": 9473,
      "為什麼有些": 9474,
      "為什麼沒有": 9475,
      "為什麼被稱為": 9476,
      "為什麼兔子": 9477,
      "為什麼熊貓": 9478,
      "為什麼牛仔褲": 9479,
      "為什麼老虎": 9480,
      "為什麼無尾熊": 9481,
      "為什麼猴子": 9482,
      "為什麼需要定期": 9483,
      "為什麼長頸鹿的脖子": 9484,
      "為什麼海豚被認為是": 9485,
      "台灣獨特的": 9486,
      "台灣公車": 9487,
      "主要透過": 9488,
      "發展史上": 9489,
      "設計非常": 9490,
      "選擇有": 9491,
      "選擇多樣": 9492,
      "為了吸引": 9493,
      "為了提高": 9494,
      "為了降低成本": 9495,
      "為了應對": 9496,
      "可以到": 9497,
      "可以更": 9498,
      "可以透過": 9499,
      "可以快速": 9500,
      "技術的": 9501,
      "但是現在": 9502,
      "成本約": 9503,
      "成本約新台幣": 9504,
      "成本更低": 9505,
      "不同而有所差異": 9506,
      "傳統口味": 9507,
      "現代火箭": 9508,
      "現代剪刀": 9509,
      "通常使用": 9510,
      "通常具備": 9511,
      "通常會選擇": 9512,
      "需要一個": 9513,
      "需要透過": 9514,
      "需要消耗": 9515,
      "需要額外": 9516,
      "需要一定的": 9517,
      "許多家庭": 9518,
      "許多國家": 9519,
      "許多設計師": 9520,
      "許多家庭的": 9521,
      "非常大": 9522,
      "非常有": 9523,
      "非常推薦": 9524,
      "非常有趣": 9525,
      "非常療癒": 9526,
      "重要地位": 9527,
      "成為生活": 9528,
      "牠們主要以": 9529,
      "開始將": 9530,
      "開始普及": 9531,
      "開始推動": 9532,
      "開始關注": 9533,
      "逐漸取代": 9534,
      "逐漸發展成": 9535,
      "而且在": 9536,
      "而且它": 9537,
      "而且牠們": 9538,
      "而且價格親民": 9539,
      "人們喜愛": 9540,
      "容易受": 9541,
      "容易取得且": 9542,
      "容易滋生細菌": 9543,
      "環境保護": 9544,
      "環境溫度": 9545,
      "環境因素": 9546,
      "隨著生活水平提高": 9547,
      "材質如": 9548,
      "材質有": 9549,
      "材質而異": 9550,
      "有些種類": 9551,
      "雖然現在我們": 9552,
      "1950年代": 9553,
      "1925年": 9554,
      "來說是": 9555,
      "系統和": 9556,
      "系統等": 9557,
      "因此在": 9558,
      "體驗到": 9559,
      "製作過程": 9560,
      "目前全球": 9561,
      "一般家用": 9562,
      "它們的起源": 9563,
      "歷史背景": 9564,
      "歷史悠久": 9565,
      "從幾百到": 9566,
      "受到中國": 9567,
      "因為早期台灣": 9568,
      "不僅有": 9569,
      "其實可以追溯到": 9570,
      "其實源自": 9571,
      "出現於": 9572,
      "絕對能提升": 9573,
      "起源可以追溯到": 9574,
      "它的發展歷程": 9575,
      "它的身影": 9576,
      "結構安全": 9577,
      "結構複雜": 9578,
      "50元": 9579,
      "推薦選擇": 9580,
      "清潔和": 9581,
      "產生氨基酸": 9582,
      "2023年": 9583,
      "這麼受歡迎": 9584,
      "舒適度和": 9585,
      "好的鳳梨酥": 9586,
      "自己的需求": 9587,
      "這種設計": 9588,
      "常見的有": 9589,
      "真的有": 9590,
      "都有自己的": 9591,
      "家用電腦": 9592,
      "的價格因": 9593,
      "的價格從": 9594,
      "的價格會": 9595,
      "的價格通常在": 9596,
      "的價格從幾十元到": 9597,
      "簡單又": 9598,
      "空間利用": 9599,
      "增加口感": 9600,
      "大量捕撈": 9601,
      "手機App": 9602,
      "手機電池容量": 9603,
      "風味的": 9604,
      "效果有限": 9605,
      "更多是": 9606,
      "台灣的公車": 9607,
      "科技纖維": 9608,
      "自然界": 9609,
      "自然環境中": 9610,
      "如果能": 9611,
      "如果家裡": 9612,
      "是為了保護": 9613,
      "比較不同": 9614,
      "實用的選擇": 9615,
      "容量從": 9616,
      "能有效過濾": 9617,
      "能有效防止": 9618,
      "能有效去除": 9619,
      "因為它不僅是": 9620,
      "因為它結合了": 9621,
      "取代傳統": 9622,
      "為什麼會成為台灣的代表性鳥類": 9623,
      "生態資源": 9624,
      "蚵仔與": 9625,
      "牠們的生存": 9626,
      "牠們的祖先": 9627,
      "也能提供": 9628,
      "不斷提升": 9629,
      "不斷替換": 9630,
      "越來越少": 9631,
      "越來越普及": 9632,
      "色彩的": 9633,
      "店家會": 9634,
      "金屬材料": 9635,
      "可追溯到1980年代": 9636,
      "廣泛分布": 9637,
      "生產力": 9638,
      "價格從幾元到": 9639,
      "仍然是最": 9640,
      "數千年前": 9641,
      "穩定且": 9642,
      "滿足了": 9643,
      "的重要工具": 9644,
      "地區而異": 9645,
      "考量到": 9646,
      "芒果的": 9647,
      "人類活動": 9648,
      "製造出": 9649,
      "製造工藝": 9650,
      "運動員": 9651,
      "圖案或": 9652,
      "依然存在": 9653,
      "依然是最": 9654,
      "依然保有": 9655,
      "相當高": 9656,
      "相當昂貴": 9657,
      "尺寸的": 9658,
      "數量如此": 9659,
      "數量有限": 9660,
      "數量龐大": 9661,
      "的美麗": 9662,
      "吸引力": 9663,
      "關鍵角色": 9664,
      "電子元件": 9665,
      "電子墨水": 9666,
      "社會階級": 9667,
      "公尺不等": 9668,
      "有什麼影響": 9669,
      "19世紀中期": 9670,
      "也更具": 9671,
      "也更容易": 9672,
      "充滿活力": 9673,
      "感受那種": 9674,
      "感受一下": 9675,
      "眼鏡框": 9676,
      "資源豐富": 9677,
      "普遍來說": 9678,
      "數位單眼": 9679,
      "流行文化": 9680,
      "工作效率和": 9681,
      "行動支付": 9682,
      "行動裝置": 9683,
      "主要成分是豬絞肉": 9684,
      "生物學": 9685,
      "小吃店": 9686,
      "小吃的代表之一": 9687,
      "西門子的": 9688,
      "的起源可以追溯到19世紀初": 9689,
      "300元之間": 9690,
      "難以負擔": 9691,
      "數據上": 9692,
      "體積小巧": 9693,
      "消費者需求": 9694,
      "維持著": 9695,
      "雖然現代科技": 9696,
      "雖然現代社會": 9697,
      "臭豆腐的特殊氣味": 9698,
      "加熱過程中": 9699,
      "玉山主峰": 9700,
      "範圍內": 9701,
      "藍鵲之所以能": 9702,
      "最早的掃地機器人": 9703,
      "創造了": 9704,
      "推出特殊": 9705,
      "絕對值得你": 9706,
      "改善了": 9707,
      "藝術創作": 9708,
      "演化歷史": 9709,
      "費用約新台幣": 9710,
      "長時間使用": 9711,
      "長時間閱讀": 9712,
      "用途是": 9713,
      "其實跟它的": 9714,
      "峽谷景觀": 9715,
      "機械結構": 9716,
      "能讓我們": 9717,
      "也有其他": 9718,
      "辦公椅": 9719,
      "透明度": 9720,
      "不可或缺的工具": 9721,
      "不可或缺的一環": 9722,
      "完全自動駕駛": 9723,
      "支付工具": 9724,
      "誕生了": 9725,
      "基礎設施": 9726,
      "娛樂和": 9727,
      "它在發展": 9728,
      "雖然早期的蒸汽機": 9729,
      "最初是作為": 9730,
      "這樣的設計": 9731,
      "將其作為": 9732,
      "美觀度": 9733,
      "生態系統的": 9734,
      "平板電腦的": 9735,
      "品種如": 9736,
      "本身的": 9737,
      "版本的": 9738,
      "滷肉飯的起源可以追溯到": 9739,
      "能帶來滿滿的": 9740,
      "所以逐漸成為": 9741,
      "100元": 9742,
      "10000mAh": 9743,
      "幾百到": 9744,
      "是台灣最具代表性的": 9745,
      "聖誕節": 9746,
      "150元之間": 9747,
      "表達對": 9748,
      "表達自我": 9749,
      "實際需求": 9750,
      "鏡片能": 9751,
      "雖然初期購買": 9752,
      "雖然初期成本較高": 9753,
      "主要用於工業用途": 9754,
      "蒸汽機是人類": 9755,
      "是如何演變": 9756,
      "規格的": 9757,
      "記錄生活": 9758,
      "資料儲存": 9759,
      "防水等級": 9760,
      "商業區": 9761,
      "約為新台幣": 9762,
      "工業革命和": 9763,
      "工業革命的": 9764,
      "太空競賽": 9765,
      "正式成立": 9766,
      "除濕機在台灣": 9767,
      "同時使用": 9768,
      "經歷過": 9769,
      "建築物": 9770,
      "牙膏口味": 9771,
      "技術發展和": 9772,
      "至今仍是": 9773,
      "遊客前來": 9774,
      "吸引了無數": 9775,
      "沙發的材質": 9776,
      "故宮博物院的名稱": 9777,
      "其中最": 9778,
      "會這麼普及": 9779,
      "總能找到": 9780,
      "總能勾起": 9781,
      "保留下來": 9782,
      "尼龍材質": 9783,
      "放鬆心情": 9784,
      "通勤或": 9785,
      "價格從新台幣": 9786,
      "光圈值": 9787,
      "象徵著團圓": 9788,
      "很快就": 9789,
      "探索宇宙": 9790,
      "醫療儀器": 9791,
      "黑色垃圾袋": 9792,
      "成本相對較高": 9793,
      "成本相對低廉": 9794,
      "居家環境": 9795,
      "記憶棉枕頭": 9796,
      "家人朋友": 9797,
      "活力與": 9798,
      "的製作方式": 9799,
      "雖然最初只是": 9800,
      "價格從幾百到數千元不等": 9801,
      "悠遊卡的": 9802,
      "ine": 9803,
      "搭乘時": 9804,
      "是很棒": 9805,
      "睡眠體驗": 9806,
      "雄獅的鬃毛": 9807,
      "接受度": 9808,
      "為什麼現在市面上出現": 9809,
      "我個人推薦選擇具有": 9810,
      "建立起": 9811,
      "恐龍在": 9812,
      "搭載了": 9813,
      "木製電視櫃": 9814,
      "深入了解": 9815,
      "運作時": 9816,
      "應用程式選擇": 9817,
      "化學家": 9818,
      "各自的": 9819,
      "笨重且": 9820,
      "且容易取得": 9821,
      "支撐力": 9822,
      "清晰度": 9823,
      "熱帶水果": 9824,
      "亮度需求": 9825,
      "基因突變": 9826,
      "壯麗的山景": 9827,
      "應付日常": 9828,
      "旗艦級": 9829,
      "草原上的": 9830,
      "里程碑": 9831,
      "隨時隨地": 9832,
      "為什麼台灣雞排": 9833,
      "雖然有些人認為": 9834,
      "依舊是": 9835,
      "各有不同": 9836,
      "大自然的奧秘": 9837,
      "大自然的鬼斧神": 9838,
      "的獨特魅力": 9839,
      "豆沙等": 9840,
      "非洲象": 9841,
      "的美好期盼": 9842,
      "口味的粽子": 9843,
      "墾丁國家公園的鵝鑾鼻燈塔": 9844,
      "做成圓形": 9845,
      "公共運輸": 9846,
      "日益增": 9847,
      "可能要價": 9848,
      "價格從幾十到數千不等": 9849,
      "元宵節吃湯圓的習俗從何而來": 9850,
      "肉圓的歷史可以追溯到": 9851,
      "裡的大腸包小腸": 9852,
      "中世紀歐洲": 9853,
      "人潮眾多": 9854,
      "在家中": 9855,
      "萬聖節的": 9856,
      "蒸發器": 9857,
      "野生動物": 9858,
      "台灣經濟發展": 9859,
      "台灣經濟起飛": 9860,
      "阿里山森林鐵路的": 9861,
      "LED燈": 9862,
      "一杯熱茶": 9863,
      "分散壓力": 9864,
      "加速了": 9865,
      "幾十年": 9866,
      "必要的": 9867,
      "瓦楞結構": 9868,
      "發行的": 9869,
      "穿梭於": 9870,
      "重點在於": 9871,
      "價格範圍廣泛": 9872,
      "為什麼會這麼受歡迎": 9873,
      "價格從幾千到上萬元不等": 9874,
      "天文學": 9875,
      "申請入山許可": 9876,
      "擁有一套": 9877,
      "家庭的鞋櫃": 9878,
      "國際空間站的": 9879,
      "Max系列": 9880,
      "佔有一席之地": 9881,
      "疫情期間": 9882,
      "羅馬帝國": 9883,
      "驅動紡織": 9884,
      "真的非常療癒": 9885,
      "家用投影機": 9886,
      "聚酯纖維等": 9887,
      "徹底改變了": 9888,
      "橙色花紋": 9889,
      "河川開發": 9890,
      "躲避天敵": 9891,
      "價格不斐": 9892,
      "很好地": 9893,
      "濃烈的氣味": 9894,
      "看著牠們": 9895,
      "神秘感": 9896,
      "農業社會": 9897,
      "主要是為了方便": 9898,
      "動物園或": 9899,
      "彩色筆的色彩": 9900,
      "堅持使用": 9901,
      "壯闊的海景": 9902,
      "氣壓式": 9903,
      "洗完後": 9904,
      "無人能及": 9905,
      "製冷劑": 9906,
      "有什麼特別之處": 9907,
      "萬聖節時": 9908,
      "NASA": 9909,
      "Sams": 9910,
      "厚厚的脂肪": 9911,
      "反射光線": 9912,
      "填充物": 9913,
      "富裕階層": 9914,
      "專注於": 9915,
      "強壯的": 9916,
      "蘊含著": 9917,
      "全球暖化導致": 9918,
      "為什麼要用土鳳梨": 9919,
      "台灣欒樹的果實從綠色": 9920,
      "sh記憶體": 9921,
      "吉林大賓": 9922,
      "涵蓋了": 9923,
      "由來是什麼": 9924,
      "豐盛的供品": 9925,
      "如此之高": 9926,
      "取代了傳統的軟碟": 9927,
      "烏龜殼上的圖案": 9928,
      "工程師們": 9929,
      "炎熱的天氣": 9930,
      "無論你是喜歡": 9931,
      "循環信用額度": 9932,
      "不小心": 9933,
      "千萬不要": 9934,
      "它跟傳統": 9935,
      "必嚐的美食之一": 9936,
      "林秀慧": 9937,
      "靈長類動物": 9938,
      "為什麼傳統的冬眠棉被": 9939,
      "主要服務於": 9940,
      "如果只是日常": 9941,
      "投入大量資源": 9942,
      "失去了飛行能力": 9943,
      "菲律賓海板塊隱沒在歐亞板塊之下": 9944,
      "Play": 9945,
      "上元節": 9946,
      "冷凝器": 9947,
      "到旗艦機都有": 9948,
      "憨態可掬": 9949,
      "琳瑯滿目": 9950,
      "留意一下": 9951,
      "蠟筆的顏色": 9952,
      "見證了": 9953,
      "主要集中在": 9954,
      "508公尺": 9955,
      "無法接受它的": 9956,
      "都能輕鬆駕馭": 9957,
      "櫻花鉤吻鮭會被列為": 9958,
      "雄獅鬃毛蓬鬆": 9959,
      "傾斜式列車": 9960,
      "Bíró": 9961,
      "Clara": 9962,
      "Flash記憶體": 9963,
      "往復式": 9964,
      "心曠神怡": 9965,
      "拿在手上": 9966,
      "會回到人間": 9967,
      "波音747": 9968,
      "為什麼長頸鹿的脖子這麼長": 9969,
      "大自然的奧秘與": 9970,
      "大自然的鬼斧神工": 9971,
      "Samsung": 9972,
      "..": 9973,
      "0隨身碟": 9974,
      "170": 9975,
      "14年": 9976,
      "3M": 9977,
      "499": 9978,
      "65": 9979,
      "69年": 9980,
      "75": 9981,
      "85": 9982,
      "Ad": 9983,
      "DC": 9984,
      "Jan": 9985,
      "Lá": 9986,
      "MI": 9987,
      "Mbps": 9988,
      "R32": 9989,
      "UV": 9990,
      "av": 9991,
      "co": 9992,
      "et": 9993,
      "ge": 9994,
      "ipp": 9995,
      "ker": 9996,
      "ló": 9997,
      "sz": 9998,
      "tra": 9999,
      "ul": 10000,
      "ur": 10001,
      "一串": 10002,
      "一卷": 10003,
      "一套": 10004,
      "一支": 10005,
      "一本": 10006,
      "一棵": 10007,
      "一環": 10008,
      "一襲": 10009,
      "一趟": 10010,
      "一路": 10011,
      "一輛": 10012,
      "一面": 10013,
      "一項": 10014,
      "一樣的": 10015,
      "一兩千": 10016,
      "上仍": 10017,
      "上手": 10018,
      "上是": 10019,
      "上限": 10020,
      "上也有": 10021,
      "上更勝一籌": 10022,
      "不住": 10023,
      "不到": 10024,
      "不受": 10025,
      "不搖": 10026,
      "不良": 10027,
      "不菲": 10028,
      "不方便": 10029,
      "且可": 10030,
      "且噪音": 10031,
      "且道路": 10032,
      "丙烯": 10033,
      "並以": 10034,
      "並用": 10035,
      "並加入": 10036,
      "中最": 10037,
      "中等": 10038,
      "串接": 10039,
      "丸子": 10040,
      "主動": 10041,
      "之中": 10042,
      "之分": 10043,
      "之為": 10044,
      "之選": 10045,
      "乘坐": 10046,
      "九層": 10047,
      "也從": 10048,
      "也曾": 10049,
      "也為": 10050,
      "也與": 10051,
      "也方便": 10052,
      "也受到": 10053,
      "也發展出": 10054,
      "也存在": 10055,
      "也隨之": 10056,
      "二次": 10057,
      "五十": 10058,
      "五百": 10059,
      "五香": 10060,
      "交配": 10061,
      "亨利": 10062,
      "人家": 10063,
      "人數": 10064,
      "今天": 10065,
      "仍在": 10066,
      "仍需": 10067,
      "仔粿": 10068,
      "他的": 10069,
      "付費": 10070,
      "以滿足": 10071,
      "以mAh": 10072,
      "伯利亞": 10073,
      "但因": 10074,
      "但更": 10075,
      "但要": 10076,
      "但可能": 10077,
      "但還是": 10078,
      "但仍然": 10079,
      "但那種": 10080,
      "但我覺得": 10081,
      "但特斯拉": 10082,
      "但提款卡": 10083,
      "但仍是": 10084,
      "但傳統上": 10085,
      "但成功率": 10086,
      "但普遍來說": 10087,
      "來維持": 10088,
      "來判斷": 10089,
      "來增添風味": 10090,
      "便以": 10091,
      "便將": 10092,
      "便開始嘗試": 10093,
      "促成了": 10094,
      "俄羅": 10095,
      "俐落": 10096,
      "修護": 10097,
      "修身": 10098,
      "個月": 10099,
      "個性的": 10100,
      "個國家公園": 10101,
      "倍率": 10102,
      "們為了": 10103,
      "倒入": 10104,
      "倫比": 10105,
      "假日": 10106,
      "假象牙": 10107,
      "偏差": 10108,
      "做了": 10109,
      "做的": 10110,
      "傍晚": 10111,
      "催生": 10112,
      "傳到": 10113,
      "僅存": 10114,
      "僅約": 10115,
      "儀容": 10116,
      "元起": 10117,
      "先從": 10118,
      "光澤": 10119,
      "入園": 10120,
      "入雲": 10121,
      "內槽": 10122,
      "全部": 10123,
      "公噸": 10124,
      "公開": 10125,
      "共存": 10126,
      "其在": 10127,
      "其背後": 10128,
      "冥紙錢": 10129,
      "冰冷": 10130,
      "冰河": 10131,
      "冰淇": 10132,
      "冷媒": 10133,
      "出口": 10134,
      "出新": 10135,
      "分明": 10136,
      "切半": 10137,
      "切片": 10138,
      "刨冰": 10139,
      "利潤": 10140,
      "到20世紀初": 10141,
      "到20000mAh": 10142,
      "刷頭": 10143,
      "則以": 10144,
      "則會": 10145,
      "則強調": 10146,
      "前身": 10147,
      "前進": 10148,
      "剛開始": 10149,
      "力學": 10150,
      "力與": 10151,
      "加勒": 10152,
      "加快": 10153,
      "加拉": 10154,
      "勞動": 10155,
      "包或": 10156,
      "匈牙": 10157,
      "化成": 10158,
      "十二": 10159,
      "升降": 10160,
      "半島": 10161,
      "南北": 10162,
      "危害": 10163,
      "原型": 10164,
      "受傷": 10165,
      "口碑": 10166,
      "古人": 10167,
      "可行": 10168,
      "吃起來": 10169,
      "合物": 10170,
      "合理": 10171,
      "合身": 10172,
      "名勝": 10173,
      "吞吞": 10174,
      "吸塵": 10175,
      "和冰": 10176,
      "和海": 10177,
      "和現在": 10178,
      "和傳統": 10179,
      "和需求": 10180,
      "和色彩": 10181,
      "和安全性": 10182,
      "和豐富的": 10183,
      "和預算": 10184,
      "和布料": 10185,
      "和情感": 10186,
      "和耐用性": 10187,
      "和蔬菜": 10188,
      "和棲息地": 10189,
      "和更高的": 10190,
      "和優美的": 10191,
      "咬合": 10192,
      "品茗": 10193,
      "喜好的": 10194,
      "喝水": 10195,
      "器具": 10196,
      "器官": 10197,
      "嚴寒": 10198,
      "四季": 10199,
      "回饋": 10200,
      "在什麼": 10201,
      "在20": 10202,
      "在18": 10203,
      "在烘焙": 10204,
      "在辦公室": 10205,
      "在19世紀末": 10206,
      "在端午節": 10207,
      "在市場上": 10208,
      "在野外": 10209,
      "在都市": 10210,
      "地毯": 10211,
      "地控制": 10212,
      "執行": 10213,
      "培育": 10214,
      "基底": 10215,
      "基隆": 10216,
      "堊紀": 10217,
      "報時": 10218,
      "增塑": 10219,
      "壞了": 10220,
      "壯觀": 10221,
      "夏天": 10222,
      "外科": 10223,
      "外線": 10224,
      "多工": 10225,
      "多用": 10226,
      "多雨": 10227,
      "多用於": 10228,
      "夢幻": 10229,
      "大且": 10230,
      "大掃": 10231,
      "大於": 10232,
      "大白": 10233,
      "大致": 10234,
      "大陸": 10235,
      "大空間": 10236,
      "大自然": 10237,
      "大光圈": 10238,
      "太大": 10239,
      "太平": 10240,
      "奇妙": 10241,
      "奇心": 10242,
      "奔放": 10243,
      "好動": 10244,
      "好一點": 10245,
      "妥協": 10246,
      "嬰兒": 10247,
      "孟加拉": 10248,
      "學生": 10249,
      "它對": 10250,
      "它採用": 10251,
      "它最初的": 10252,
      "它是一種": 10253,
      "完美的": 10254,
      "定的": 10255,
      "宮廷": 10256,
      "宮殿": 10257,
      "家養": 10258,
      "容納": 10259,
      "寄生": 10260,
      "寄託": 10261,
      "富人": 10262,
      "寬廣": 10263,
      "寶石": 10264,
      "將食物": 10265,
      "將肉餡": 10266,
      "對仗": 10267,
      "對生活品質": 10268,
      "導體": 10269,
      "小物": 10270,
      "小果實": 10271,
      "就算": 10272,
      "就非常": 10273,
      "就應運而生": 10274,
      "就必須": 10275,
      "屈原": 10276,
      "展覽": 10277,
      "山城": 10278,
      "山峰": 10279,
      "屹立": 10280,
      "岩壁": 10281,
      "岸線": 10282,
      "巒疊": 10283,
      "巡航": 10284,
      "工整": 10285,
      "差距": 10286,
      "差很多": 10287,
      "巴士": 10288,
      "布或": 10289,
      "布口罩": 10290,
      "帝王": 10291,
      "師傅": 10292,
      "帶著": 10293,
      "常態": 10294,
      "幅度": 10295,
      "平的": 10296,
      "平直": 10297,
      "平面": 10298,
      "年左右": 10299,
      "幾種": 10300,
      "底座": 10301,
      "店鋪": 10302,
      "廊道": 10303,
      "廢棄": 10304,
      "廣闊": 10305,
      "式望遠鏡": 10306,
      "引人": 10307,
      "強力": 10308,
      "強的": 10309,
      "強度和": 10310,
      "彈性和": 10311,
      "很舒服": 10312,
      "從而": 10313,
      "從傳統的": 10314,
      "從入門級": 10315,
      "從單純的": 10316,
      "微觀": 10317,
      "心力": 10318,
      "心理": 10319,
      "必吃": 10320,
      "忍不住": 10321,
      "快閃": 10322,
      "忽視": 10323,
      "恆溫": 10324,
      "情味": 10325,
      "惡劣": 10326,
      "想嘗試": 10327,
      "感的": 10328,
      "慢吞吞": 10329,
      "慶典": 10330,
      "慾望": 10331,
      "憑藉": 10332,
      "成因": 10333,
      "成年的": 10334,
      "我會": 10335,
      "我很推薦": 10336,
      "我很推薦大家": 10337,
      "或畜": 10338,
      "或銀": 10339,
      "或重要": 10340,
      "或簡單": 10341,
      "或特定": 10342,
      "或學習": 10343,
      "或紅燒": 10344,
      "截然": 10345,
      "戶外": 10346,
      "手感": 10347,
      "手臂": 10348,
      "才演變成": 10349,
      "才開啟了": 10350,
      "才得以": 10351,
      "才慢慢": 10352,
      "打卡": 10353,
      "打孔": 10354,
      "打掃": 10355,
      "抵達": 10356,
      "指定": 10357,
      "挺拔": 10358,
      "捩點": 10359,
      "掌上": 10360,
      "排列": 10361,
      "掛上": 10362,
      "採礦": 10363,
      "接收": 10364,
      "推力": 10365,
      "推移": 10366,
      "推進": 10367,
      "提的是": 10368,
      "插頭": 10369,
      "撕裂": 10370,
      "支出": 10371,
      "收穫": 10372,
      "放心": 10373,
      "散發": 10374,
      "敬佩": 10375,
      "敲擊": 10376,
      "新型": 10377,
      "新穎": 10378,
      "新興": 10379,
      "新幹線": 10380,
      "施打": 10381,
      "旋風": 10382,
      "既有": 10383,
      "日後": 10384,
      "日漸": 10385,
      "日耳": 10386,
      "日新月": 10387,
      "明朝": 10388,
      "春秋": 10389,
      "是牠們": 10390,
      "是體驗": 10391,
      "是了解": 10392,
      "是用來": 10393,
      "是非常值得": 10394,
      "時不": 10395,
      "時所": 10396,
      "時空": 10397,
      "時總是": 10398,
      "晚輩": 10399,
      "更久": 10400,
      "更貴": 10401,
      "更代表著": 10402,
      "更環保": 10403,
      "更了解": 10404,
      "更輕鬆": 10405,
      "更長的": 10406,
      "更均勻": 10407,
      "更強大的": 10408,
      "更代表了": 10409,
      "更細緻": 10410,
      "更精確的": 10411,
      "書信": 10412,
      "曼人的": 10413,
      "最愛": 10414,
      "最貴": 10415,
      "最新的": 10416,
      "會擁有": 10417,
      "會採用": 10418,
      "會比較": 10419,
      "會強調": 10420,
      "會直接": 10421,
      "會變成": 10422,
      "有害": 10423,
      "有種": 10424,
      "有影響": 10425,
      "有較高": 10426,
      "有超過": 10427,
      "有一定的": 10428,
      "朝時期的": 10429,
      "木炭": 10430,
      "本地": 10431,
      "杉樹": 10432,
      "杜邦": 10433,
      "板油": 10434,
      "柑橘": 10435,
      "柔順": 10436,
      "校準": 10437,
      "根本": 10438,
      "格外": 10439,
      "格蘭": 10440,
      "格調": 10441,
      "棉毛巾": 10442,
      "棕色的": 10443,
      "棧道": 10444,
      "極度": 10445,
      "極端": 10446,
      "極高的": 10447,
      "標配": 10448,
      "樹種": 10449,
      "樹脂": 10450,
      "橘紅色": 10451,
      "機率": 10452,
      "歐美": 10453,
      "正在": 10454,
      "此功能": 10455,
      "步調": 10456,
      "死角": 10457,
      "段歷史": 10458,
      "每一": 10459,
      "每公斤": 10460,
      "比較高": 10461,
      "比HDD": 10462,
      "毛皮": 10463,
      "民生": 10464,
      "氣溫": 10465,
      "氧飽和度": 10466,
      "水花": 10467,
      "水資源": 10468,
      "污漬": 10469,
      "沉寂": 10470,
      "油垢": 10471,
      "油性": 10472,
      "油漬": 10473,
      "油耗": 10474,
      "沿線": 10475,
      "沿海地區": 10476,
      "泛開": 10477,
      "注入": 10478,
      "洄游": 10479,
      "淘汰": 10480,
      "深淺": 10481,
      "深邃": 10482,
      "混紡": 10483,
      "清代": 10484,
      "清新": 10485,
      "減緩": 10486,
      "溶解": 10487,
      "滑順": 10488,
      "滷製": 10489,
      "演色": 10490,
      "潭水": 10491,
      "濃密度": 10492,
      "火災": 10493,
      "炭灰色": 10494,
      "為主要": 10495,
      "無敵": 10496,
      "無與": 10497,
      "無酒精": 10498,
      "無香精": 10499,
      "照護": 10500,
      "煮飯": 10501,
      "熊科": 10502,
      "熟度": 10503,
      "熟的": 10504,
      "熬煮": 10505,
      "熱能": 10506,
      "熱門": 10507,
      "燈泡": 10508,
      "犬種": 10509,
      "犬齒": 10510,
      "狹窄": 10511,
      "獅子的": 10512,
      "獵捕": 10513,
      "玩遊戲": 10514,
      "球狀": 10515,
      "產地": 10516,
      "畫家": 10517,
      "疊加": 10518,
      "發卡": 10519,
      "發想": 10520,
      "發掘": 10521,
      "發送": 10522,
      "白色的": 10523,
      "白米飯": 10524,
      "白堊紀": 10525,
      "的呢": 10526,
      "的提": 10527,
      "的總": 10528,
      "的葉": 10529,
      "的不同": 10530,
      "的速度": 10531,
      "的整體": 10532,
      "的運輸": 10533,
      "的感受": 10534,
      "的觀光": 10535,
      "的變化": 10536,
      "的主要成分是": 10537,
      "的公車": 10538,
      "的存在": 10539,
      "的優勢": 10540,
      "的功能性": 10541,
      "的費用": 10542,
      "的透明": 10543,
      "的儀式": 10544,
      "的中秋餅": 10545,
      "的轉變": 10546,
      "的電風扇": 10547,
      "的機會": 10548,
      "的挑戰": 10549,
      "的路線": 10550,
      "的開放": 10551,
      "的香味": 10552,
      "的趨勢": 10553,
      "的優點": 10554,
      "的配方": 10555,
      "的台南": 10556,
      "的平台": 10557,
      "的切割": 10558,
      "的景色": 10559,
      "的高溫": 10560,
      "的震動": 10561,
      "的毛髮": 10562,
      "的頻率": 10563,
      "的理想": 10564,
      "的侵蝕": 10565,
      "的次數": 10566,
      "的定價": 10567,
      "的淵源": 10568,
      "的精神": 10569,
      "的喜悅": 10570,
      "的模樣": 10571,
      "皮的": 10572,
      "皺褶": 10573,
      "盛譽": 10574,
      "目睹": 10575,
      "相機會": 10576,
      "省時": 10577,
      "研磨": 10578,
      "碰撞": 10579,
      "磁性": 10580,
      "磁鐵": 10581,
      "礦井": 10582,
      "礦物質": 10583,
      "祈福": 10584,
      "神明": 10585,
      "神的": 10586,
      "神靈": 10587,
      "禦寒": 10588,
      "秋天": 10589,
      "移到": 10590,
      "稱作": 10591,
      "稱之為": 10592,
      "穿戴": 10593,
      "立霧": 10594,
      "竹筷": 10595,
      "笨拙": 10596,
      "第三": 10597,
      "等問題": 10598,
      "等設計": 10599,
      "等技術": 10600,
      "等不同": 10601,
      "等特殊": 10602,
      "等都是": 10603,
      "等基本": 10604,
      "等特性": 10605,
      "等都會": 10606,
      "等氣體": 10607,
      "管制": 10608,
      "篇章": 10609,
      "簡易": 10610,
      "簡短": 10611,
      "粉紅色的": 10612,
      "粗略": 10613,
      "粗細": 10614,
      "精髓": 10615,
      "糖和": 10616,
      "約30": 10617,
      "紅底": 10618,
      "紅磚": 10619,
      "紅豆": 10620,
      "紅袋鼠": 10621,
      "紅褐色": 10622,
      "納入": 10623,
      "純羊絨圍巾": 10624,
      "紙本": 10625,
      "紮實": 10626,
      "結婚": 10627,
      "結束": 10628,
      "絕種": 10629,
      "絕緣": 10630,
      "絨毛": 10631,
      "經營": 10632,
      "經費": 10633,
      "綠化": 10634,
      "綠意": 10635,
      "網際": 10636,
      "線路": 10637,
      "緩解": 10638,
      "繁衍": 10639,
      "繁複": 10640,
      "織布": 10641,
      "繪製": 10642,
      "纏繞": 10643,
      "纜車": 10644,
      "罐頭": 10645,
      "群山": 10646,
      "群體": 10647,
      "習性": 10648,
      "翼展": 10649,
      "考究": 10650,
      "而有": 10651,
      "而存在": 10652,
      "而誕生": 10653,
      "而設計的": 10654,
      "而產生的": 10655,
      "耐熱": 10656,
      "耗盡": 10657,
      "聚落": 10658,
      "聰明的": 10659,
      "肚子": 10660,
      "背面": 10661,
      "能代表": 10662,
      "能降低": 10663,
      "能減少": 10664,
      "能透過": 10665,
      "能長時間": 10666,
      "能確保": 10667,
      "能同時": 10668,
      "能模擬": 10669,
      "脊椎": 10670,
      "脫落": 10671,
      "腐蝕": 10672,
      "膠體": 10673,
      "自備": 10674,
      "與發展": 10675,
      "與保護": 10676,
      "與便利性": 10677,
      "與演進": 10678,
      "與保養": 10679,
      "與放流": 10680,
      "舉辦": 10681,
      "花色": 10682,
      "英寸": 10683,
      "茂密的": 10684,
      "草仔粿": 10685,
      "華人": 10686,
      "萬元到": 10687,
      "蒲草": 10688,
      "蕾絲": 10689,
      "藉由": 10690,
      "蘇聯": 10691,
      "蜂蜜": 10692,
      "融化的": 10693,
      "螺旋": 10694,
      "血統": 10695,
      "血氧飽和度": 10696,
      "行銷": 10697,
      "衍生": 10698,
      "表情": 10699,
      "衰退": 10700,
      "被應用到": 10701,
      "裝載": 10702,
      "裹粉": 10703,
      "製錶": 10704,
      "襟垂": 10705,
      "襯托": 10706,
      "西伯利亞": 10707,
      "見的": 10708,
      "親人": 10709,
      "角落": 10710,
      "試著": 10711,
      "該怎麼": 10712,
      "認同": 10713,
      "認知": 10714,
      "語音": 10715,
      "誤差": 10716,
      "說到": 10717,
      "謹慎": 10718,
      "讀取": 10719,
      "讀數": 10720,
      "變脆": 10721,
      "讓生活": 10722,
      "讓食物": 10723,
      "讓大家": 10724,
      "讓許多人": 10725,
      "讓智慧型手機": 10726,
      "讓牠們在": 10727,
      "象征": 10728,
      "貝殼": 10729,
      "負離子": 10730,
      "質疑": 10731,
      "走入": 10732,
      "起步": 10733,
      "越強": 10734,
      "路況": 10735,
      "路途": 10736,
      "踏實": 10737,
      "車種": 10738,
      "較軟": 10739,
      "較大的": 10740,
      "載入": 10741,
      "輝煌": 10742,
      "轉捩點": 10743,
      "辛苦": 10744,
      "辛香料": 10745,
      "迷人": 10746,
      "追捧": 10747,
      "這天": 10748,
      "這款": 10749,
      "這筆": 10750,
      "這股": 10751,
      "通風": 10752,
      "週期": 10753,
      "進階": 10754,
      "過多": 10755,
      "過載": 10756,
      "適中的": 10757,
      "還原": 10758,
      "還沒": 10759,
      "那一款": 10760,
      "邵族": 10761,
      "部的": 10762,
      "部落": 10763,
      "郵政": 10764,
      "都要": 10765,
      "都具有": 10766,
      "都讓人感到": 10767,
      "都充滿了": 10768,
      "都很適合": 10769,
      "醃漬": 10770,
      "醒目": 10771,
      "醫生": 10772,
      "重啟": 10773,
      "金字": 10774,
      "銳利": 10775,
      "錯誤": 10776,
      "錶盤": 10777,
      "鍵盤": 10778,
      "鎖匙": 10779,
      "鏡子的": 10780,
      "鐘表": 10781,
      "長久": 10782,
      "長途": 10783,
      "長達": 10784,
      "門戶": 10785,
      "閃爍": 10786,
      "開機": 10787,
      "防滑": 10788,
      "防盜": 10789,
      "陰影": 10790,
      "隨後": 10791,
      "集郵": 10792,
      "雙腳": 10793,
      "雜質": 10794,
      "雨季": 10795,
      "零售": 10796,
      "零年代": 10797,
      "雷擊": 10798,
      "雷達": 10799,
      "電能": 10800,
      "電阻": 10801,
      "電冰箱": 10802,
      "靈魂": 10803,
      "青睞": 10804,
      "青菜": 10805,
      "靜音": 10806,
      "音色": 10807,
      "頭部": 10808,
      "頸部": 10809,
      "頻段": 10810,
      "頻閃": 10811,
      "飆升": 10812,
      "飛翔": 10813,
      "食譜": 10814,
      "飲品的": 10815,
      "餐點": 10816,
      "首創": 10817,
      "首個國家公園": 10818,
      "馴養": 10819,
      "驅趕": 10820,
      "驚嘆": 10821,
      "驟降": 10822,
      "骨頭": 10823,
      "高於": 10824,
      "高樓": 10825,
      "高海拔": 10826,
      "高解析度": 10827,
[...]
